{
  "version": "1.0",
  "truncation": null,
  "padding": null,
  "added_tokens": [
    {
      "id": 0,
      "content": "<|padding|>",
      "single_word": false,
      "lstrip": false,
      "rstrip": false,
      "normalized": false,
      "special": true
    },
    {
      "id": 1,
      "content": "<|begin_of_text|>",
      "single_word": false,
      "lstrip": false,
      "rstrip": false,
      "normalized": false,
      "special": true
    },
    {
      "id": 2,
      "content": "<|end_of_text|>",
      "single_word": false,
      "lstrip": false,
      "rstrip": false,
      "normalized": false,
      "special": true
    },
    {
      "id": 3,
      "content": "<|unknown|>",
      "single_word": false,
      "lstrip": false,
      "rstrip": false,
      "normalized": false,
      "special": true
    },
    {
      "id": 4,
      "content": "<|fim_prefix|>",
      "single_word": false,
      "lstrip": false,
      "rstrip": false,
      "normalized": false,
      "special": true
    },
    {
      "id": 5,
      "content": "<|fim_middle|>",
      "single_word": false,
      "lstrip": false,
      "rstrip": false,
      "normalized": false,
      "special": true
    },
    {
      "id": 6,
      "content": "<|fim_suffix|>",
      "single_word": false,
      "lstrip": false,
      "rstrip": false,
      "normalized": false,
      "special": true
    },
    {
      "id": 7,
      "content": "<|think|>",
      "single_word": false,
      "lstrip": false,
      "rstrip": false,
      "normalized": false,
      "special": true
    },
    {
      "id": 8,
      "content": "<|/think|>",
      "single_word": false,
      "lstrip": false,
      "rstrip": false,
      "normalized": false,
      "special": true
    },
    {
      "id": 9,
      "content": "<|answer|>",
      "single_word": false,
      "lstrip": false,
      "rstrip": false,
      "normalized": false,
      "special": true
    },
    {
      "id": 10,
      "content": "<|/answer|>",
      "single_word": false,
      "lstrip": false,
      "rstrip": false,
      "normalized": false,
      "special": true
    },
    {
      "id": 11,
      "content": "<|user|>",
      "single_word": false,
      "lstrip": false,
      "rstrip": false,
      "normalized": false,
      "special": true
    },
    {
      "id": 12,
      "content": "<|assistant|>",
      "single_word": false,
      "lstrip": false,
      "rstrip": false,
      "normalized": false,
      "special": true
    },
    {
      "id": 13,
      "content": "<|system|>",
      "single_word": false,
      "lstrip": false,
      "rstrip": false,
      "normalized": false,
      "special": true
    }
  ],
  "normalizer": null,
  "pre_tokenizer": {
    "type": "ByteLevel",
    "add_prefix_space": false,
    "trim_offsets": true,
    "use_regex": true
  },
  "post_processor": {
    "type": "TemplateProcessing",
    "single": [
      {
        "SpecialToken": {
          "id": "<|begin_of_text|>",
          "type_id": 0
        }
      },
      {
        "Sequence": {
          "id": "A",
          "type_id": 0
        }
      },
      {
        "SpecialToken": {
          "id": "<|end_of_text|>",
          "type_id": 0
        }
      }
    ],
    "pair": [
      {
        "SpecialToken": {
          "id": "<|begin_of_text|>",
          "type_id": 0
        }
      },
      {
        "Sequence": {
          "id": "A",
          "type_id": 0
        }
      },
      {
        "SpecialToken": {
          "id": "<|end_of_text|>",
          "type_id": 0
        }
      },
      {
        "SpecialToken": {
          "id": "<|begin_of_text|>",
          "type_id": 0
        }
      },
      {
        "Sequence": {
          "id": "B",
          "type_id": 1
        }
      },
      {
        "SpecialToken": {
          "id": "<|end_of_text|>",
          "type_id": 1
        }
      }
    ],
    "special_tokens": {
      "<|begin_of_text|>": {
        "id": "<|begin_of_text|>",
        "ids": [
          1
        ],
        "tokens": [
          "<|begin_of_text|>"
        ]
      },
      "<|end_of_text|>": {
        "id": "<|end_of_text|>",
        "ids": [
          2
        ],
        "tokens": [
          "<|end_of_text|>"
        ]
      }
    }
  },
  "decoder": {
    "type": "ByteLevel",
    "add_prefix_space": true,
    "trim_offsets": true,
    "use_regex": true
  },
  "model": {
    "type": "BPE",
    "dropout": null,
    "unk_token": null,
    "continuing_subword_prefix": null,
    "end_of_word_suffix": null,
    "fuse_unk": false,
    "byte_fallback": false,
    "ignore_merges": false,
    "vocab": {
      "<|padding|>": 0,
      "<|begin_of_text|>": 1,
      "<|end_of_text|>": 2,
      "<|unknown|>": 3,
      "<|fim_prefix|>": 4,
      "<|fim_middle|>": 5,
      "<|fim_suffix|>": 6,
      "<|think|>": 7,
      "<|/think|>": 8,
      "<|answer|>": 9,
      "<|/answer|>": 10,
      "<|user|>": 11,
      "<|assistant|>": 12,
      "<|system|>": 13,
      "!": 14,
      "\"": 15,
      "#": 16,
      "$": 17,
      "%": 18,
      "&": 19,
      "'": 20,
      "(": 21,
      ")": 22,
      "*": 23,
      "+": 24,
      ",": 25,
      "-": 26,
      ".": 27,
      "/": 28,
      "0": 29,
      "1": 30,
      "2": 31,
      "3": 32,
      "4": 33,
      "5": 34,
      "6": 35,
      "7": 36,
      "8": 37,
      "9": 38,
      ":": 39,
      ";": 40,
      "<": 41,
      "=": 42,
      ">": 43,
      "?": 44,
      "@": 45,
      "A": 46,
      "B": 47,
      "C": 48,
      "D": 49,
      "E": 50,
      "F": 51,
      "G": 52,
      "H": 53,
      "I": 54,
      "J": 55,
      "K": 56,
      "L": 57,
      "M": 58,
      "N": 59,
      "O": 60,
      "P": 61,
      "Q": 62,
      "R": 63,
      "S": 64,
      "T": 65,
      "U": 66,
      "V": 67,
      "W": 68,
      "X": 69,
      "Y": 70,
      "Z": 71,
      "[": 72,
      "\\": 73,
      "]": 74,
      "^": 75,
      "_": 76,
      "`": 77,
      "a": 78,
      "b": 79,
      "c": 80,
      "d": 81,
      "e": 82,
      "f": 83,
      "g": 84,
      "h": 85,
      "i": 86,
      "j": 87,
      "k": 88,
      "l": 89,
      "m": 90,
      "n": 91,
      "o": 92,
      "p": 93,
      "q": 94,
      "r": 95,
      "s": 96,
      "t": 97,
      "u": 98,
      "v": 99,
      "w": 100,
      "x": 101,
      "y": 102,
      "z": 103,
      "{": 104,
      "|": 105,
      "}": 106,
      "~": 107,
      "¡": 108,
      "¢": 109,
      "£": 110,
      "¤": 111,
      "¥": 112,
      "¦": 113,
      "§": 114,
      "¨": 115,
      "©": 116,
      "ª": 117,
      "«": 118,
      "¬": 119,
      "®": 120,
      "¯": 121,
      "°": 122,
      "±": 123,
      "²": 124,
      "³": 125,
      "´": 126,
      "µ": 127,
      "¶": 128,
      "·": 129,
      "¸": 130,
      "¹": 131,
      "º": 132,
      "»": 133,
      "¼": 134,
      "½": 135,
      "¾": 136,
      "¿": 137,
      "À": 138,
      "Á": 139,
      "Â": 140,
      "Ã": 141,
      "Ä": 142,
      "Å": 143,
      "Æ": 144,
      "Ç": 145,
      "È": 146,
      "É": 147,
      "Ê": 148,
      "Ë": 149,
      "Ì": 150,
      "Í": 151,
      "Î": 152,
      "Ï": 153,
      "Ð": 154,
      "Ñ": 155,
      "Ò": 156,
      "Ó": 157,
      "Ô": 158,
      "Õ": 159,
      "Ö": 160,
      "×": 161,
      "Ø": 162,
      "Ù": 163,
      "Ú": 164,
      "Û": 165,
      "Ü": 166,
      "Ý": 167,
      "Þ": 168,
      "ß": 169,
      "à": 170,
      "á": 171,
      "â": 172,
      "ã": 173,
      "ä": 174,
      "å": 175,
      "æ": 176,
      "ç": 177,
      "è": 178,
      "é": 179,
      "ê": 180,
      "ë": 181,
      "ì": 182,
      "í": 183,
      "î": 184,
      "ï": 185,
      "ð": 186,
      "ñ": 187,
      "ò": 188,
      "ó": 189,
      "ô": 190,
      "õ": 191,
      "ö": 192,
      "÷": 193,
      "ø": 194,
      "ù": 195,
      "ú": 196,
      "û": 197,
      "ü": 198,
      "ý": 199,
      "þ": 200,
      "ÿ": 201,
      "Ā": 202,
      "ā": 203,
      "Ă": 204,
      "ă": 205,
      "Ą": 206,
      "ą": 207,
      "Ć": 208,
      "ć": 209,
      "Ĉ": 210,
      "ĉ": 211,
      "Ċ": 212,
      "ċ": 213,
      "Č": 214,
      "č": 215,
      "Ď": 216,
      "ď": 217,
      "Đ": 218,
      "đ": 219,
      "Ē": 220,
      "ē": 221,
      "Ĕ": 222,
      "ĕ": 223,
      "Ė": 224,
      "ė": 225,
      "Ę": 226,
      "ę": 227,
      "Ě": 228,
      "ě": 229,
      "Ĝ": 230,
      "ĝ": 231,
      "Ğ": 232,
      "ğ": 233,
      "Ġ": 234,
      "ġ": 235,
      "Ģ": 236,
      "ģ": 237,
      "Ĥ": 238,
      "ĥ": 239,
      "Ħ": 240,
      "ħ": 241,
      "Ĩ": 242,
      "ĩ": 243,
      "Ī": 244,
      "ī": 245,
      "Ĭ": 246,
      "ĭ": 247,
      "Į": 248,
      "į": 249,
      "İ": 250,
      "ı": 251,
      "Ĳ": 252,
      "ĳ": 253,
      "Ĵ": 254,
      "ĵ": 255,
      "Ķ": 256,
      "ķ": 257,
      "ĸ": 258,
      "Ĺ": 259,
      "ĺ": 260,
      "Ļ": 261,
      "ļ": 262,
      "Ľ": 263,
      "ľ": 264,
      "Ŀ": 265,
      "ŀ": 266,
      "Ł": 267,
      "ł": 268,
      "Ń": 269,
      "ĠĠ": 270,
      "ĠĠĠĠ": 271,
      "Ġt": 272,
      "in": 273,
      "Ġa": 274,
      "he": 275,
      "re": 276,
      "on": 277,
      "er": 278,
      "at": 279,
      "Ġs": 280,
      "Ġthe": 281,
      "or": 282,
      "en": 283,
      "es": 284,
      "Ġc": 285,
      "an": 286,
      "al": 287,
      "it": 288,
      "is": 289,
      "Ġo": 290,
      "ĠĠĠ": 291,
      "Ġp": 292,
      "Ġw": 293,
      "ing": 294,
      "Ġf": 295,
      "nd": 296,
      "ed": 297,
      "ar": 298,
      "ĠĠĠĠĠĠĠĠ": 299,
      "Ġin": 300,
      "ion": 301,
      "Ġb": 302,
      "el": 303,
      "ic": 304,
      "ou": 305,
      "Ġd": 306,
      "Ġof": 307,
      "Ġm": 308,
      "Ġand": 309,
      "Ġto": 310,
      "ro": 311,
      "le": 312,
      "as": 313,
      "ent": 314,
      "ct": 315,
      "et": 316,
      "Ġre": 317,
      "st": 318,
      "ĠĠĠĠĠĠĠ": 319,
      "il": 320,
      "Ġh": 321,
      "om": 322,
      "Ġn": 323,
      "Ġl": 324,
      "Ġe": 325,
      "Ġth": 326,
      "am": 327,
      "im": 328,
      "ur": 329,
      "id": 330,
      "ol": 331,
      "se": 332,
      "ĠT": 333,
      "ce": 334,
      "ut": 335,
      "ation": 336,
      "ot": 337,
      "Ġ=": 338,
      "Ġis": 339,
      "ve": 340,
      "ig": 341,
      "ch": 342,
      "Ġg": 343,
      "Ġfor": 344,
      "ad": 345,
      "if": 346,
      "elf": 347,
      "ĠS": 348,
      "ĠA": 349,
      "âĢ": 350,
      "ow": 351,
      "Ġu": 352,
      "ly": 353,
      "ul": 354,
      "ĠC": 355,
      "ir": 356,
      "Ġst": 357,
      "ver": 358,
      "od": 359,
      "ra": 360,
      "Ġbe": 361,
      "Ġon": 362,
      "ĠI": 363,
      "ĠĠĠĠĠĠĠĠĠĠĠ": 364,
      "ay": 365,
      "ith": 366,
      "Ġas": 367,
      "ag": 368,
      "Ġy": 369,
      "Ġcon": 370,
      "ect": 371,
      "est": 372,
      "Ġde": 373,
      "Ġ(": 374,
      "Ġpro": 375,
      "ate": 376,
      "ist": 377,
      "ab": 378,
      "Ġthat": 379,
      "ers": 380,
      "em": 381,
      "um": 382,
      "Ġ'": 383,
      "Ġ1": 384,
      "ort": 385,
      "ess": 386,
      "Ġwith": 387,
      "qu": 388,
      "ĠM": 389,
      "op": 390,
      "ter": 391,
      "ĠP": 392,
      "Ġself": 393,
      "res": 394,
      "ri": 395,
      "Ġal": 396,
      "her": 397,
      "us": 398,
      "ac": 399,
      "Ġ\"": 400,
      "our": 401,
      "Ġor": 402,
      "--": 403,
      "Ġan": 404,
      "Ġit": 405,
      "Ġv": 406,
      "th": 407,
      "Ġare": 408,
      "and": 409,
      "oc": 410,
      "Ġex": 411,
      "ĠB": 412,
      "pe": 413,
      "ĠThe": 414,
      "ity": 415,
      "un": 416,
      "rom": 417,
      "Ġhe": 418,
      "Ġcom": 419,
      "ke": 420,
      "ment": 421,
      "pp": 422,
      "Ġwh": 423,
      "ies": 424,
      "os": 425,
      "ain": 426,
      "nt": 427,
      "ĠĠĠĠĠĠĠĠĠĠĠĠĠĠĠĠ": 428,
      "ore": 429,
      "ĠF": 430,
      "ame": 431,
      "pt": 432,
      "ĠH": 433,
      "iv": 434,
      "Ġsu": 435,
      "ĠD": 436,
      "ĠR": 437,
      "Ġcan": 438,
      "ĠN": 439,
      "Ġr": 440,
      "ill": 441,
      "ial": 442,
      "ere": 443,
      "ant": 444,
      "):": 445,
      "igh": 446,
      "ue": 447,
      "##": 448,
      "imp": 449,
      "ive": 450,
      "Ġ2": 451,
      "âĢĻ": 452,
      "ĠW": 453,
      "og": 454,
      "ĠE": 455,
      "Ġen": 456,
      "ĠL": 457,
      "art": 458,
      "all": 459,
      "Ġby": 460,
      "ure": 461,
      "',": 462,
      "Ġch": 463,
      "ex": 464,
      "ass": 465,
      "pl": 466,
      "ud": 467,
      "Ġat": 468,
      "Ġfrom": 469,
      "Ġwas": 470,
      "self": 471,
      "ions": 472,
      "00": 473,
      "ĠG": 474,
      "ld": 475,
      "Ġnot": 476,
      "cl": 477,
      "iz": 478,
      "ew": 479,
      "per": 480,
      "ult": 481,
      "Ġif": 482,
      "age": 483,
      "Ġle": 484,
      "ang": 485,
      "Ġyou": 486,
      "ical": 487,
      "Ġse": 488,
      "ine": 489,
      "end": 490,
      "rou": 491,
      "Ġimp": 492,
      "ight": 493,
      "ave": 494,
      "Ġpl": 495,
      "ff": 496,
      "act": 497,
      "one": 498,
      "urn": 499,
      "orm": 500,
      "out": 501,
      "Ġsh": 502,
      "are": 503,
      "ost": 504,
      "ust": 505,
      "ile": 506,
      "Ġ#": 507,
      "),": 508,
      "Ġres": 509,
      "ĠO": 510,
      "ard": 511,
      "ance": 512,
      "con": 513,
      "ated": 514,
      "able": 515,
      "Ġus": 516,
      "ip": 517,
      "Ġdef": 518,
      "ĠĠĠĠĠĠĠĠĠĠĠĠĠĠĠ": 519,
      "ef": 520,
      "Ġint": 521,
      "Ġcont": 522,
      "()": 523,
      "ĠâĢ": 524,
      "ans": 525,
      "The": 526,
      "Ġad": 527,
      "----": 528,
      "ell": 529,
      "ap": 530,
      "du": 531,
      "ak": 532,
      "Ġyour": 533,
      "Ġthis": 534,
      "ast": 535,
      "Ġwe": 536,
      "ich": 537,
      "ĠU": 538,
      "ign": 539,
      "\"\"": 540,
      "Ġtheir": 541,
      "ib": 542,
      "Ġhave": 543,
      "ork": 544,
      "ations": 545,
      "':": 546,
      "ert": 547,
      "Ġcomp": 548,
      "ire": 549,
      "cc": 550,
      "ata": 551,
      "ord": 552,
      "get": 553,
      "Ġret": 554,
      "ry": 555,
      "int": 556,
      "ther": 557,
      "ack": 558,
      "ind": 559,
      "ime": 560,
      "ep": 561,
      "gh": 562,
      "Ġab": 563,
      "ide": 564,
      "ome": 565,
      "ĠJ": 566,
      "ru": 567,
      "ary": 568,
      "Ġ19": 569,
      "ath": 570,
      "Ġcl": 571,
      "Ġne": 572,
      "ong": 573,
      "ents": 574,
      "ia": 575,
      "ob": 576,
      "ub": 577,
      "ous": 578,
      "av": 579,
      "so": 580,
      "Ġk": 581,
      "ĠIn": 582,
      "form": 583,
      "ĠTh": 584,
      "ould": 585,
      "vel": 586,
      "Ġwhe": 587,
      "ge": 588,
      "ces": 589,
      "Ġreturn": 590,
      "Ġall": 591,
      "Ġel": 592,
      "ice": 593,
      "ction": 594,
      "ase": 595,
      "__": 596,
      "ild": 597,
      "ual": 598,
      "Ġar": 599,
      "ress": 600,
      "('": 601,
      "####": 602,
      "Ġwhich": 603,
      "Ġdis": 604,
      "ater": 605,
      "ject": 606,
      "ition": 607,
      "ext": 608,
      "ok": 609,
      "Ġhas": 610,
      "ount": 611,
      "'s": 612,
      "Ġalso": 613,
      "ens": 614,
      "name": 615,
      "ence": 616,
      "Ġ[": 617,
      "ood": 618,
      "ach": 619,
      "ace": 620,
      "ail": 621,
      "\",": 622,
      "ors": 623,
      "Ġj": 624,
      "Ġmore": 625,
      "ype": 626,
      "ear": 627,
      "ake": 628,
      "Ġtr": 629,
      "ory": 630,
      "Ġthey": 631,
      "Ġwill": 632,
      "==": 633,
      "Ġman": 634,
      "ber": 635,
      "Ġun": 636,
      "ict": 637,
      "ĠSt": 638,
      "ĠK": 639,
      "rit": 640,
      "Ġpre": 641,
      "Ġsy": 642,
      "Ġimport": 643,
      "')": 644,
      "vers": 645,
      "ck": 646,
      "čĊ": 647,
      "Ġte": 648,
      "Ġout": 649,
      "com": 650,
      "cre": 651,
      "Ġsp": 652,
      "ose": 653,
      "Ġcomm": 654,
      "Ġother": 655,
      "']": 656,
      "ish": 657,
      "pec": 658,
      "Ġper": 659,
      "ound": 660,
      "Ġbut": 661,
      "ĠV": 662,
      "erv": 663,
      "eld": 664,
      "ĠThis": 665,
      "val": 666,
      "ĠIt": 667,
      "Ġ-": 668,
      "Ġro": 669,
      "01": 670,
      "Ġind": 671,
      "reat": 672,
      "ian": 673,
      "ings": 674,
      "ific": 675,
      "nder": 676,
      "Ġpart": 677,
      "ely": 678,
      "Ġdo": 679,
      "Ġapp": 680,
      "own": 681,
      "ode": 682,
      "cess": 683,
      "ield": 684,
      "Ġme": 685,
      "ock": 686,
      "Ġsc": 687,
      "Ġ\"\"\"": 688,
      "))": 689,
      "Ġqu": 690,
      "ph": 691,
      "Ġwork": 692,
      "ĠCh": 693,
      "âĢĿ": 694,
      "ys": 695,
      "Ġ0": 696,
      "arg": 697,
      "lp": 698,
      "Ġev": 699,
      "ates": 700,
      "['": 701,
      "In": 702,
      "Ġone": 703,
      "clud": 704,
      "Ġass": 705,
      "Ġso": 706,
      "ms": 707,
      "ient": 708,
      "rib": 709,
      "au": 710,
      "lic": 711,
      "low": 712,
      "alth": 713,
      "eth": 714,
      "gr": 715,
      "Ġits": 716,
      ").": 717,
      "ree": 718,
      "tern": 719,
      "Ġhis": 720,
      "Ġcol": 721,
      "(\"": 722,
      "mer": 723,
      "Ġ+": 724,
      "ĉĉ": 725,
      "Ġ{": 726,
      "._": 727,
      "ities": 728,
      "Ġ3": 729,
      "ie": 730,
      "Ġwere": 731,
      "iff": 732,
      "ize": 733,
      "Ġhelp": 734,
      "Ġup": 735,
      "ook": 736,
      "ov": 737,
      "olog": 738,
      "cept": 739,
      "Ġtime": 740,
      "Ġpe": 741,
      "Ġli": 742,
      "ove": 743,
      "Ġacc": 744,
      "ite": 745,
      "ool": 746,
      "amp": 747,
      "Ġover": 748,
      "Ġinto": 749,
      "row": 750,
      "Ġpr": 751,
      "ise": 752,
      "Ġmay": 753,
      "stem": 754,
      "ark": 755,
      "very": 756,
      "ll": 757,
      "Ġabout": 758,
      "Ġdes": 759,
      "ari": 760,
      "Ġcons": 761,
      "Ġval": 762,
      "rue": 763,
      "we": 764,
      "ren": 765,
      "up": 766,
      "pro": 767,
      "Ġact": 768,
      "Ġnew": 769,
      "Ġinclud": 770,
      "app": 771,
      "Ġunder": 772,
      "odel": 773,
      "Ġuse": 774,
      "ning": 775,
      "ating": 776,
      "ener": 777,
      "--------": 778,
      "Ġwho": 779,
      "les": 780,
      "irst": 781,
      "ink": 782,
      "ople": 783,
      "ĠY": 784,
      "ĠâĢľ": 785,
      "Ġtest": 786,
      "Ġstud": 787,
      "pon": 788,
      "Ġprov": 789,
      "ax": 790,
      "put": 791,
      "che": 792,
      "ility": 793,
      "Ġthese": 794,
      "Ġthem": 795,
      "Ġeff": 796,
      "ick": 797,
      "Ġ|": 798,
      "ĠĠĠĠĠĠĠĠĠĠĠĠĠĠĠĠĠĠĠ": 799,
      "key": 800,
      "Ġra": 801,
      "Ġwhen": 802,
      "Ġem": 803,
      "Ġdata": 804,
      "ays": 805,
      "te": 806,
      "rough": 807,
      "uring": 808,
      "Ġadd": 809,
      "par": 810,
      "ange": 811,
      "Ġstr": 812,
      "Ġgo": 813,
      "Ġrec": 814,
      "Ġexp": 815,
      "Ġsuch": 816,
      "ics": 817,
      "Ġ%": 818,
      "Ġneed": 819,
      "als": 820,
      "old": 821,
      "Ġbl": 822,
      "red": 823,
      "Ġspec": 824,
      "ational": 825,
      "Ġoff": 826,
      "Ġdiff": 827,
      "def": 828,
      "ft": 829,
      "set": 830,
      "velop": 831,
      "ne": 832,
      "ced": 833,
      "Ġget": 834,
      "Ġbet": 835,
      "ular": 836,
      "iss": 837,
      "Ġreg": 838,
      "ments": 839,
      "ec": 840,
      "sh": 841,
      "Ġhealth": 842,
      "str": 843,
      "ures": 844,
      "Ġtra": 845,
      "port": 846,
      "Ġprodu": 847,
      "Ġkn": 848,
      "Ġrel": 849,
      "from": 850,
      "Ġag": 851,
      "ally": 852,
      "ĠĠĠĠĠ": 853,
      "Ġ==": 854,
      "Ġob": 855,
      "ror": 856,
      "Ġfe": 857,
      "ract": 858,
      "Ġ:": 859,
      "its": 860,
      "Ġset": 861,
      "Ġbec": 862,
      "Ġrequ": 863,
      "ĠĊ": 864,
      "ev": 865,
      "ĠUn": 866,
      "ful": 867,
      "Ġhow": 868,
      "Ġyear": 869,
      "Ġpeople": 870,
      "ĠNone": 871,
      "roup": 872,
      "Ġbeen": 873,
      "ues": 874,
      "],": 875,
      "Ġsome": 876,
      "Ġused": 877,
      "path": 878,
      "ix": 879,
      "Ġatt": 880,
      "Ġthan": 881,
      "ĠâĢĵ": 882,
      "ough": 883,
      "ative": 884,
      "\")": 885,
      "ade": 886,
      "ices": 887,
      "ased": 888,
      "Ġthere": 889,
      "Ġsystem": 890,
      "Ġour": 891,
      "Ġsupp": 892,
      "Ġfirst": 893,
      "########": 894,
      "fter": 895,
      "oint": 896,
      "Ġfl": 897,
      "round": 898,
      "Ġbu": 899,
      "ied": 900,
      "oth": 901,
      "ten": 902,
      "Ġdevelop": 903,
      "ĠHe": 904,
      "ont": 905,
      "chn": 906,
      "hed": 907,
      "19": 908,
      "ential": 909,
      "orld": 910,
      "aw": 911,
      "arch": 912,
      "Ġ201": 913,
      "enc": 914,
      "eren": 915,
      "Ġany": 916,
      "type": 917,
      "fl": 918,
      "ribut": 919,
      "Ġtrans": 920,
      "Ġlike": 921,
      "Ġthrough": 922,
      "tt": 923,
      "ection": 924,
      "ause": 925,
      "Ġsub": 926,
      "Ġ200": 927,
      "Ġtw": 928,
      "Ġ_": 929,
      "Ġrem": 930,
      "ng": 931,
      "ss": 932,
      "Ġplay": 933,
      "Ġnum": 934,
      "erm": 935,
      "Ġsign": 936,
      "ug": 937,
      "ower": 938,
      "oss": 939,
      "Ġph": 940,
      "Ġinst": 941,
      "Ġresult": 942,
      "Ġonly": 943,
      "eg": 944,
      "yp": 945,
      "Ġinv": 946,
      "Ġmost": 947,
      "**": 948,
      "eng": 949,
      "Ġim": 950,
      "Ġhad": 951,
      "Ġ4": 952,
      "iew": 953,
      "ines": 954,
      "ible": 955,
      "ons": 956,
      "Ġco": 957,
      "alse": 958,
      "att": 959,
      "ected": 960,
      "hen": 961,
      "====": 962,
      "ric": 963,
      "Ġdi": 964,
      "Ġsa": 965,
      "Ġinter": 966,
      "read": 967,
      "Ġno": 968,
      "Ġchild": 969,
      "add": 970,
      "assert": 971,
      "gan": 972,
      "oy": 973,
      "ins": 974,
      "file": 975,
      "Ġform": 976,
      "vir": 977,
      "Ġshould": 978,
      "ife": 979,
      "fig": 980,
      "Ġpol": 981,
      "Ġam": 982,
      "ural": 983,
      "ruct": 984,
      "data": 985,
      "\":": 986,
      "Ġwell": 987,
      "Ġac": 988,
      "ages": 989,
      "pr": 990,
      "ered": 991,
      "Ġfil": 992,
      "Ġname": 993,
      "Ġhigh": 994,
      "ethod": 995,
      "Ġwhere": 996,
      "Ġvari": 997,
      "Ġcre": 998,
      "St": 999,
      "atch": 1000,
      "ĠĠĠĠĠĠĠĠĠĠĠĠĠĠĠĠĠĠĠĠĠĠĠĠĠĠĠĠĠĠĠĠ": 1001,
      "Ġprocess": 1002,
      "ption": 1003,
      "ature": 1004,
      "ists": 1005,
      "ween": 1006,
      "ting": 1007,
      "aking": 1008,
      "Ġ5": 1009,
      "ource": 1010,
      "Ġtechn": 1011,
      "ious": 1012,
      "Ġexper": 1013,
      "class": 1014,
      "Ġtwo": 1015,
      "sc": 1016,
      "ness": 1017,
      "Ġmake": 1018,
      "ars": 1019,
      "vent": 1020,
      "ants": 1021,
      "ited": 1022,
      "ident": 1023,
      "ience": 1024,
      "ask": 1025,
      "='": 1026,
      "to": 1027,
      "Ġmany": 1028,
      "ily": 1029,
      "erson": 1030,
      "viron": 1031,
      "..": 1032,
      "ern": 1033,
      "oad": 1034,
      "Ġwater": 1035,
      "Ġelse": 1036,
      "ward": 1037,
      "gy": 1038,
      "Ġloc": 1039,
      "Ġbetween": 1040,
      "work": 1041,
      "Ġsm": 1042,
      "uth": 1043,
      "ams": 1044,
      "io": 1045,
      "irect": 1046,
      "Ġher": 1047,
      "ts": 1048,
      "uc": 1049,
      "Ġsur": 1050,
      "Ġed": 1051,
      "Ġcur": 1052,
      "wn": 1053,
      "stand": 1054,
      "Ġdet": 1055,
      "Ġeffect": 1056,
      "Ġmed": 1057,
      "cont": 1058,
      "eb": 1059,
      "ety": 1060,
      "qual": 1061,
      "True": 1062,
      "ble": 1063,
      "Ġwould": 1064,
      "Ġlear": 1065,
      "anc": 1066,
      "Ġref": 1067,
      "fo": 1068,
      "Ġfun": 1069,
      "ever": 1070,
      "args": 1071,
      "ER": 1072,
      "ement": 1073,
      "ized": 1074,
      "erent": 1075,
      "Ġwhat": 1076,
      "Ġlead": 1077,
      "Ġdist": 1078,
      "oci": 1079,
      "land": 1080,
      "ames": 1081,
      "ense": 1082,
      "Ġpres": 1083,
      "Ġext": 1084,
      "ology": 1085,
      "py": 1086,
      "fore": 1087,
      "Ġmain": 1088,
      "Ġgener": 1089,
      "ĠPro": 1090,
      "Ġserv": 1091,
      "ault": 1092,
      "])": 1093,
      "ublic": 1094,
      "meric": 1095,
      "Ġent": 1096,
      "Ġ18": 1097,
      "chool": 1098,
      "rent": 1099,
      "Ġsk": 1100,
      "ody": 1101,
      "any": 1102,
      "âĢĵ": 1103,
      "Ġcommun": 1104,
      "Ġart": 1105,
      "ĠCom": 1106,
      "co": 1107,
      "ank": 1108,
      "test": 1109,
      "Ġche": 1110,
      "Ġafter": 1111,
      "Ġrespon": 1112,
      "Ġfound": 1113,
      "Ġincre": 1114,
      "ution": 1115,
      "arm": 1116,
      "Ġdifferent": 1117,
      "der": 1118,
      "Ġ20": 1119,
      "inal": 1120,
      "Ġsupport": 1121,
      "ollow": 1122,
      "Ġlong": 1123,
      "orn": 1124,
      "Ġcall": 1125,
      "ĠAr": 1126,
      "led": 1127,
      "Ġinform": 1128,
      "ample": 1129,
      "Ġwhile": 1130,
      "Ġend": 1131,
      "Ġmin": 1132,
      "ivid": 1133,
      "ives": 1134,
      "ale": 1135,
      "ps": 1136,
      "air": 1137,
      "Ġdec": 1138,
      "ision": 1139,
      "ier": 1140,
      "iqu": 1141,
      "Ġgr": 1142,
      "Ġprovid": 1143,
      "Ġworld": 1144,
      "Ġduring": 1145,
      "import": 1146,
      "vironment": 1147,
      "Ġlist": 1148,
      "hip": 1149,
      "min": 1150,
      "ĠAl": 1151,
      "Ġser": 1152,
      "Ġins": 1153,
      "=\"": 1154,
      "ivers": 1155,
      "Ġcount": 1156,
      "Ġdep": 1157,
      "requ": 1158,
      "ify": 1159,
      "IN": 1160,
      "ically": 1161,
      "ession": 1162,
      "line": 1163,
      "ases": 1164,
      "Ġbr": 1165,
      "ery": 1166,
      "Ġop": 1167,
      "Ġear": 1168,
      "Ġyears": 1169,
      "cent": 1170,
      "other": 1171,
      "Ġpar": 1172,
      "Er": 1173,
      "list": 1174,
      "Ġx": 1175,
      "ĠIf": 1176,
      "Ġstart": 1177,
      "Ġav": 1178,
      "Th": 1179,
      "ann": 1180,
      "Ġmod": 1181,
      "Ġredu": 1182,
      "ON": 1183,
      "Ġpat": 1184,
      "Ġmodel": 1185,
      "date": 1186,
      "Ġimportant": 1187,
      "isk": 1188,
      "Ġcent": 1189,
      "cur": 1190,
      "Ġclass": 1191,
      "Ġsol": 1192,
      "ser": 1193,
      "Ġcomple": 1194,
      "Ġcould": 1195,
      "Ex": 1196,
      "ty": 1197,
      "ism": 1198,
      "Ġeach": 1199,
      "ee": 1200,
      "ator": 1201,
      "ray": 1202,
      "ond": 1203,
      "Ġback": 1204,
      "ital": 1205,
      "Ġ*": 1206,
      "raph": 1207,
      "Ġeven": 1208,
      "Error": 1209,
      "ired": 1210,
      "Ġlife": 1211,
      "ash": 1212,
      "ually": 1213,
      "Ġlevel": 1214,
      "Ġdesign": 1215,
      "Ġvalue": 1216,
      "url": 1217,
      "ĠAmeric": 1218,
      "ull": 1219,
      "ware": 1220,
      "Ġoften": 1221,
      "Ġjust": 1222,
      "Ġkey": 1223,
      "Ġrese": 1224,
      "Ġmon": 1225,
      "Ġ6": 1226,
      "Ġca": 1227,
      "oot": 1228,
      "ox": 1229,
      "Ġthen": 1230,
      "Ġknow": 1231,
      "pect": 1232,
      "Ġpartic": 1233,
      "Ġcar": 1234,
      "lect": 1235,
      "Ġallow": 1236,
      "Ġgrow": 1237,
      "Ġhum": 1238,
      "Ġperson": 1239,
      "Ġpass": 1240,
      "ĠThey": 1241,
      "Ġway": 1242,
      "Ġappro": 1243,
      "itions": 1244,
      "Ġprint": 1245,
      "rain": 1246,
      "Ġfollow": 1247,
      "ets": 1248,
      "rol": 1249,
      "ape": 1250,
      "ished": 1251,
      "20": 1252,
      "ency": 1253,
      "ĠAs": 1254,
      "ĠWh": 1255,
      "Ġshe": 1256,
      "Ġread": 1257,
      "Ġsee": 1258,
      "Ġusing": 1259,
      "Ġgl": 1260,
      "son": 1261,
      "cond": 1262,
      "uch": 1263,
      "Ġcare": 1264,
      "AT": 1265,
      "Ġmem": 1266,
      "Ġexpl": 1267,
      "ved": 1268,
      "Ġwrit": 1269,
      "ĠInd": 1270,
      "Ġbuild": 1271,
      "erences": 1272,
      "Wh": 1273,
      "Ġtype": 1274,
      "Ġgroup": 1275,
      "ES": 1276,
      "gs": 1277,
      "Ġfam": 1278,
      "ĠFor": 1279,
      "pos": 1280,
      "ividual": 1281,
      "Ġens": 1282,
      "col": 1283,
      "Ġhand": 1284,
      "ner": 1285,
      "Ġdel": 1286,
      "Ġfact": 1287,
      "dd": 1288,
      "Ġbeing": 1289,
      "ĠAn": 1290,
      "ability": 1291,
      "Ġown": 1292,
      "ality": 1293,
      "Ġboth": 1294,
      "Ġ)": 1295,
      "Ġcontin": 1296,
      "ĠEx": 1297,
      "Ġevery": 1298,
      "Ġstate": 1299,
      "ering": 1300,
      "Ġadv": 1301,
      "\"\"\"": 1302,
      "Ġincluding": 1303,
      "None": 1304,
      "fil": 1305,
      "----------------": 1306,
      "ather": 1307,
      "Ġbel": 1308,
      "Ġright": 1309,
      "Ġcond": 1310,
      "Ġmet": 1311,
      "Ġprot": 1312,
      "Ġactiv": 1313,
      "//": 1314,
      "Ġunderstand": 1315,
      "Ġlog": 1316,
      "und": 1317,
      "ĠHow": 1318,
      "Ġconst": 1319,
      "az": 1320,
      "ral": 1321,
      "atus": 1322,
      "Ġenvironment": 1323,
      "ret": 1324,
      "Ġinformation": 1325,
      "ĠĠĠĠĠĠĠĠĠĠĠĠĠĠĠĠĠĠĠĠĠĠĠ": 1326,
      "ĠThese": 1327,
      "Ġimpro": 1328,
      "Ġfood": 1329,
      "value": 1330,
      "ves": 1331,
      "ĠQ": 1332,
      "Ġshow": 1333,
      "els": 1334,
      "Ġhist": 1335,
      "field": 1336,
      "imes": 1337,
      "time": 1338,
      "Ġfile": 1339,
      "Ġtem": 1340,
      "Ġgu": 1341,
      "by": 1342,
      "vern": 1343,
      "ument": 1344,
      "hes": 1345,
      "Ġindividual": 1346,
      "Ġmethod": 1347,
      "Ġap": 1348,
      "version": 1349,
      "000": 1350,
      "Ġbefore": 1351,
      "oin": 1352,
      "Ġcle": 1353,
      "ead": 1354,
      "Ġbre": 1355,
      "Ġorgan": 1356,
      "Ġfind": 1357,
      "Ġnumber": 1358,
      "ĠNew": 1359,
      "ids": 1360,
      "ah": 1361,
      "Ġbecause": 1362,
      "Ġ<": 1363,
      "ns": 1364,
      "10": 1365,
      "ason": 1366,
      "Ġpot": 1367,
      "Ġpract": 1368,
      "Ġagain": 1369,
      "Ġrep": 1370,
      "Ġpower": 1371,
      "Ġpos": 1372,
      "ization": 1373,
      "Ġthose": 1374,
      "arent": 1375,
      "log": 1376,
      "ources": 1377,
      "Ġassert": 1378,
      "Ġpop": 1379,
      "Ġsignific": 1380,
      "Ġdirect": 1381,
      "comm": 1382,
      "AR": 1383,
      "Ġtreat": 1384,
      "Ġmade": 1385,
      "Ġest": 1386,
      "model": 1387,
      "ocial": 1388,
      "jects": 1389,
      "Ġdoes": 1390,
      "ule": 1391,
      "Ġeng": 1392,
      "Ġopt": 1393,
      "db": 1394,
      "Ġbody": 1395,
      "angu": 1396,
      "user": 1397,
      "Ġchildren": 1398,
      "Ġprogr": 1399,
      "Ġconn": 1400,
      "ats": 1401,
      "Ġ__": 1402,
      "man": 1403,
      "uss": 1404,
      "ton": 1405,
      "ries": 1406,
      "iness": 1407,
      "Ġke": 1408,
      "ĠTrue": 1409,
      "Ġfield": 1410,
      "ted": 1411,
      "ute": 1412,
      "Ġtyp": 1413,
      "for": 1414,
      "Ġoper": 1415,
      "ince": 1416,
      "ccess": 1417,
      "li": 1418,
      "ĠĠĠĠĠĠĠĠĠĠĠĠĠĠĠĠĠĠĠĠĠĠĠĠ": 1419,
      "ross": 1420,
      "Ġ@": 1421,
      "itive": 1422,
      "aterial": 1423,
      "ains": 1424,
      "Ġsame": 1425,
      "etwork": 1426,
      "Ġtry": 1427,
      "Ġ('": 1428,
      "append": 1429,
      "aj": 1430,
      "dict": 1431,
      "riv": 1432,
      "Ġrisk": 1433,
      "Ġfin": 1434,
      "mp": 1435,
      "ote": 1436,
      "way": 1437,
      "ergy": 1438,
      "Ġconsid": 1439,
      "Ġer": 1440,
      "ury": 1441,
      "inst": 1442,
      "Ġmust": 1443,
      "mb": 1444,
      "Ġschool": 1445,
      "Ġstudents": 1446,
      "orth": 1447,
      "Ch": 1448,
      "arge": 1449,
      "lish": 1450,
      "Ġsaf": 1451,
      "ords": 1452,
      "Ġinf": 1453,
      "akes": 1454,
      "outh": 1455,
      "ron": 1456,
      "Ġ10": 1457,
      "Ġben": 1458,
      "Ġmanag": 1459,
      "Ġperform": 1460,
      "view": 1461,
      "iversity": 1462,
      "Ġprof": 1463,
      "Ġexcept": 1464,
      "Ġeduc": 1465,
      "Ġ8": 1466,
      "tain": 1467,
      "Ġproper": 1468,
      "init": 1469,
      "Ġiss": 1470,
      "Ġrun": 1471,
      "Ġsmall": 1472,
      "Ġcreate": 1473,
      "the": 1474,
      "Ġcommon": 1475,
      "atic": 1476,
      "Ġos": 1477,
      "ental": 1478,
      "Ġcor": 1479,
      "Ġproduct": 1480,
      "lement": 1481,
      "ouse": 1482,
      "Ġopen": 1483,
      "ared": 1484,
      "ĠCon": 1485,
      "ulation": 1486,
      "Ġmark": 1487,
      "util": 1488,
      "ĠFalse": 1489,
      "Ġtake": 1490,
      "Ġproble": 1491,
      "ĠYou": 1492,
      "Ġaff": 1493,
      "Ġdisc": 1494,
      "Ref": 1495,
      "Ġi": 1496,
      "Ġ7": 1497,
      "itional": 1498,
      "ST": 1499,
      "Ġelect": 1500,
      "Ġ{'": 1501,
      "Ġenergy": 1502,
      "ĠSe": 1503,
      "Ġlook": 1504,
      "omen": 1505,
      "Ġ>": 1506,
      "Ġmus": 1507,
      "Ġvis": 1508,
      "################": 1509,
      "Ġline": 1510,
      "Ġinclude": 1511,
      "Ġgood": 1512,
      "Ġvery": 1513,
      "Ġpoint": 1514,
      "tr": 1515,
      "Ġprovide": 1516,
      "bers": 1517,
      "amm": 1518,
      "Ġknown": 1519,
      "yn": 1520,
      "bl": 1521,
      "dir": 1522,
      "essage": 1523,
      "Ġmy": 1524,
      "Ġident": 1525,
      "IT": 1526,
      "ified": 1527,
      "Equal": 1528,
      "Ġposs": 1529,
      "OR": 1530,
      "opy": 1531,
      "Ġdown": 1532,
      "EN": 1533,
      "[\"": 1534,
      "Ġsignificant": 1535,
      "ĠSh": 1536,
      "iving": 1537,
      "ances": 1538,
      "Ġfunction": 1539,
      "ateg": 1540,
      "back": 1541,
      "Ġlink": 1542,
      "Ġcult": 1543,
      "lab": 1544,
      "ined": 1545,
      "ger": 1546,
      "Ġaround": 1547,
      "ium": 1548,
      "ior": 1549,
      "Ġ199": 1550,
      "Ġchang": 1551,
      "Ġcurrent": 1552,
      "arget": 1553,
      "Ġdev": 1554,
      "Ġess": 1555,
      "Ġmaterial": 1556,
      "Ġbeh": 1557,
      "day": 1558,
      "ternal": 1559,
      "Ġaccess": 1560,
      "oun": 1561,
      "cial": 1562,
      "Ġwithout": 1563,
      "ĠĠĠĠĠĠ": 1564,
      "cri": 1565,
      "oms": 1566,
      "param": 1567,
      "Ġuser": 1568,
      "Ġprom": 1569,
      "Ġimpact": 1570,
      "reg": 1571,
      "iven": 1572,
      "acter": 1573,
      "ination": 1574,
      ".âĢĿ": 1575,
      "Ġdevelopment": 1576,
      "ball": 1577,
      "ĠWe": 1578,
      "It": 1579,
      "Ġ||": 1580,
      "ining": 1581,
      "Ġ`": 1582,
      "olum": 1583,
      "12": 1584,
      "========": 1585,
      "Ġland": 1586,
      "Ġwithin": 1587,
      "ID": 1588,
      "Ġmuch": 1589,
      "ref": 1590,
      "be": 1591,
      "ems": 1592,
      "anguage": 1593,
      "ively": 1594,
      "conom": 1595,
      "Ġbenef": 1596,
      "Ġrange": 1597,
      "iod": 1598,
      "Ġbus": 1599,
      "rem": 1600,
      "load": 1601,
      "Ġair": 1602,
      "Ġday": 1603,
      "Ġstudy": 1604,
      "ĠCl": 1605,
      "ĠDe": 1606,
      "mon": 1607,
      "bs": 1608,
      "ique": 1609,
      "Ġresearch": 1610,
      "gg": 1611,
      "oid": 1612,
      "Ġ&": 1613,
      "ills": 1614,
      "Ġcreat": 1615,
      "ml": 1616,
      "Ġpur": 1617,
      "less": 1618,
      "info": 1619,
      "config": 1620,
      "Pro": 1621,
      "Ġocc": 1622,
      "Ġthree": 1623,
      "Ġpotential": 1624,
      "oh": 1625,
      "Ġpublic": 1626,
      "format": 1627,
      "cle": 1628,
      "Ġhead": 1629,
      "Ġstand": 1630,
      "uthor": 1631,
      "Ġ}": 1632,
      "not": 1633,
      "Ġhuman": 1634,
      "Ġexample": 1635,
      "Ġless": 1636,
      "():": 1637,
      "Ġcap": 1638,
      "Ġchar": 1639,
      "Ġvarious": 1640,
      "ik": 1641,
      "Ġaut": 1642,
      "This": 1643,
      "ples": 1644,
      "ember": 1645,
      "ately": 1646,
      "Ġnow": 1647,
      "Ġhim": 1648,
      "__(": 1649,
      "Ġsocial": 1650,
      "por": 1651,
      "icult": 1652,
      "uture": 1653,
      "ole": 1654,
      "assertEqual": 1655,
      "Ġpath": 1656,
      "ĠSc": 1657,
      "lished": 1658,
      "Ġlearning": 1659,
      "ional": 1660,
      "Ġgovern": 1661,
      "ĠZ": 1662,
      "Ġeas": 1663,
      "References": 1664,
      "ĠEng": 1665,
      "Ġdise": 1666,
      "ien": 1667,
      "ĠAmerican": 1668,
      "ird": 1669,
      "ength": 1670,
      "ially": 1671,
      "://": 1672,
      "Ġinvol": 1673,
      "ission": 1674,
      "ocus": 1675,
      "uro": 1676,
      "ey": 1677,
      "Ġsaid": 1678,
      "Ġfr": 1679,
      "Ġraise": 1680,
      "False": 1681,
      "Ġtext": 1682,
      "Ġcour": 1683,
      "Ġphys": 1684,
      "ĠHowever": 1685,
      "Ġmaking": 1686,
      "Field": 1687,
      "\"]": 1688,
      "Ġrole": 1689,
      "Ġanal": 1690,
      "Ġbest": 1691,
      "Ġchall": 1692,
      "Ġrele": 1693,
      "iter": 1694,
      "Ġplace": 1695,
      "Ġplan": 1696,
      "18": 1697,
      "Ġreport": 1698,
      "Ġinfl": 1699,
      "erence": 1700,
      "ĠBy": 1701,
      "ploy": 1702,
      "ina": 1703,
      "ĠPl": 1704,
      "Ġsecond": 1705,
      "Ġgre": 1706,
      "ration": 1707,
      "num": 1708,
      "raw": 1709,
      "Ġlight": 1710,
      "Ġ9": 1711,
      "Ġspecific": 1712,
      "ĠUnited": 1713,
      "Ġcontrol": 1714,
      "alk": 1715,
      "Ġenc": 1716,
      "SE": 1717,
      "opt": 1718,
      "ring": 1719,
      "mod": 1720,
      "duct": 1721,
      "text": 1722,
      "Ġfac": 1723,
      "Ġcheck": 1724,
      "ven": 1725,
      "Ġchange": 1726,
      "Ġreal": 1727,
      "Ġcell": 1728,
      "Ġlab": 1729,
      "Ġgen": 1730,
      "ling": 1731,
      "Ġappe": 1732,
      "aving": 1733,
      "ogn": 1734,
      "Ġprevent": 1735,
      "rop": 1736,
      "atter": 1737,
      "Ġhome": 1738,
      "Ġz": 1739,
      "Ġmult": 1740,
      "ango": 1741,
      "Ġtop": 1742,
      "Ġapplic": 1743,
      "AN": 1744,
      "âĢĶ": 1745,
      "ĠIs": 1746,
      "use": 1747,
      "Ġstruct": 1748,
      "'),": 1749,
      "Ġlim": 1750,
      "Ġsever": 1751,
      "of": 1752,
      "ived": 1753,
      "Ġindust": 1754,
      "Ġve": 1755,
      "hers": 1756,
      "ication": 1757,
      "aster": 1758,
      "sy": 1759,
      "Ġsystems": 1760,
      "Ġkeep": 1761,
      "Ġagainst": 1762,
      "Ġmight": 1763,
      "ertain": 1764,
      "Ġrequest": 1765,
      "ek": 1766,
      "Ġimm": 1767,
      "Ġnp": 1768,
      "Ġtool": 1769,
      "atural": 1770,
      "ĠRes": 1771,
      "Ġproject": 1772,
      "sp": 1773,
      "Ġcho": 1774,
      "ging": 1775,
      "play": 1776,
      "ording": 1777,
      "Ġopp": 1778,
      "Ġessential": 1779,
      "Ġlen": 1780,
      "Ġtrad": 1781,
      "Ġconf": 1782,
      "Ġspe": 1783,
      "ards": 1784,
      "ĠUniversity": 1785,
      "Ġsing": 1786,
      "cing": 1787,
      "ches": 1788,
      "eter": 1789,
      "Ġcr": 1790,
      "'t": 1791,
      "Ġes": 1792,
      "ĠOn": 1793,
      "Ġsimp": 1794,
      "obal": 1795,
      "agn": 1796,
      "ici": 1797,
      "50": 1798,
      "jango": 1799,
      "writ": 1800,
      "Ġlast": 1801,
      "itle": 1802,
      "Ġide": 1803,
      "itor": 1804,
      "Ġsom": 1805,
      "].": 1806,
      "ograph": 1807,
      "imate": 1808,
      "icle": 1809,
      "ailable": 1810,
      "Ġbased": 1811,
      "resent": 1812,
      "wargs": 1813,
      "Ġcalled": 1814,
      "LE": 1815,
      "af": 1816,
      "ler": 1817,
      "Ġpain": 1818,
      "Ġlocal": 1819,
      "Ġrece": 1820,
      "size": 1821,
      "Ġarea": 1822,
      "count": 1823,
      "Ġorig": 1824,
      "Ġfamily": 1825,
      "Ġequ": 1826,
      "ribute": 1827,
      "Ġmove": 1828,
      "Ġcost": 1829,
      "Ġsuccess": 1830,
      "ww": 1831,
      "Ġleg": 1832,
      "ĠAnd": 1833,
      "Ġorder": 1834,
      "ĠCol": 1835,
      ".\"": 1836,
      "03": 1837,
      "Ġcaus": 1838,
      "Ġbetter": 1839,
      "ends": 1840,
      "icense": 1841,
      "erest": 1842,
      "une": 1843,
      "cer": 1844,
      "ises": 1845,
      "instance": 1846,
      "''": 1847,
      "RE": 1848,
      "Ġbecome": 1849,
      "Ġbusiness": 1850,
      "Ġsl": 1851,
      "ths": 1852,
      "Ġstill": 1853,
      "Ġlaw": 1854,
      "aces": 1855,
      "ention": 1856,
      "atures": 1857,
      "face": 1858,
      "Ġlearn": 1859,
      "yle": 1860,
      "ories": 1861,
      "Ġresponse": 1862,
      "Ġmeas": 1863,
      "200": 1864,
      "acy": 1865,
      "ights": 1866,
      "urther": 1867,
      "ended": 1868,
      "Ġseveral": 1869,
      "Ġfocus": 1870,
      "ĠThere": 1871,
      "ables": 1872,
      "Ġwant": 1873,
      "Ġtechnology": 1874,
      "ently": 1875,
      "place": 1876,
      "ots": 1877,
      "ĠSp": 1878,
      "ored": 1879,
      "ception": 1880,
      "Ġ.": 1881,
      "Ġbo": 1882,
      "Ġfoot": 1883,
      "ological": 1884,
      "fact": 1885,
      "ways": 1886,
      "Ġdue": 1887,
      "Ġeconom": 1888,
      "Ġsit": 1889,
      "amb": 1890,
      "tle": 1891,
      "Ġteam": 1892,
      "Ġimprove": 1893,
      "Ġ198": 1894,
      "201": 1895,
      "ients": 1896,
      "Ġwar": 1897,
      "AL": 1898,
      "serv": 1899,
      "apt": 1900,
      "ving": 1901,
      "ttp": 1902,
      "Ġearly": 1903,
      "index": 1904,
      "Ġinc": 1905,
      "group": 1906,
      "Ġcal": 1907,
      "Ġpresent": 1908,
      "bu": 1909,
      "Ġgreat": 1910,
      ",âĢĿ": 1911,
      "Ġensure": 1912,
      "Ġfollowing": 1913,
      "ĠLe": 1914,
      "Ġlarge": 1915,
      "Ġold": 1916,
      "Ġobject": 1917,
      "ilities": 1918,
      "ĠPh": 1919,
      "ajor": 1920,
      "([": 1921,
      "à¤": 1922,
      "Ġhistory": 1923,
      "max": 1924,
      "ators": 1925,
      "Ġdon": 1926,
      "over": 1927,
      "sub": 1928,
      "ĠFr": 1929,
      "start": 1930,
      "Ġevent": 1931,
      "ope": 1932,
      "ĠStates": 1933,
      "met": 1934,
      "ised": 1935,
      "Ġter": 1936,
      "Ġnon": 1937,
      "ending": 1938,
      "Ġquest": 1939,
      "verse": 1940,
      "Ġinit": 1941,
      "ache": 1942,
      ".__": 1943,
      "Ġparticular": 1944,
      "inc": 1945,
      "Ġthough": 1946,
      ".,": 1947,
      "idd": 1948,
      "my": 1949,
      "Ġbook": 1950,
      "Ġaddress": 1951,
      "aut": 1952,
      "Ġneeds": 1953,
      "Ġdr": 1954,
      "oor": 1955,
      "Con": 1956,
      "rec": 1957,
      "'}": 1958,
      "11": 1959,
      "Ġpost": 1960,
      "Ġexperience": 1961,
      "Ġfew": 1962,
      "ustom": 1963,
      "Ġassoci": 1964,
      "Ġsim": 1965,
      "ression": 1966,
      "Ġ{}": 1967,
      "Com": 1968,
      "\".": 1969,
      "tings": 1970,
      "ternational": 1971,
      "Ġconditions": 1972,
      "Ġarg": 1973,
      "ple": 1974,
      "Ġunt": 1975,
      "Ġ[]": 1976,
      "ym": 1977,
      "Ġcrit": 1978,
      "Ġ/": 1979,
      "ĠOr": 1980,
      "Ġestab": 1981,
      "What": 1982,
      "ĠBut": 1983,
      "ones": 1984,
      "models": 1985,
      "rel": 1986,
      "join": 1987,
      "mit": 1988,
      "Ġinvest": 1989,
      "ĠBl": 1990,
      "imal": 1991,
      "ane": 1992,
      "ma": 1993,
      "Ġareas": 1994,
      "AS": 1995,
      "ename": 1996,
      "Ġlater": 1997,
      "ĠAd": 1998,
      "Ġelif": 1999,
      "Ġanother": 2000,
      "Ġfeel": 2001,
      "ĠRe": 2002,
      "::": 2003,
      "Ġdig": 2004,
      "yd": 2005,
      "Ġbro": 2006,
      "Ġdat": 2007,
      "Ġfuture": 2008,
      "Ġdid": 2009,
      "Ġstep": 2010,
      "egr": 2011,
      "'],": 2012,
      "head": 2013,
      "orts": 2014,
      "Ġperiod": 2015,
      "ush": 2016,
      "ides": 2017,
      "Ġcru": 2018,
      "Ġdoc": 2019,
      "Ġant": 2020,
      "Ġtre": 2021,
      "ream": 2022,
      "25": 2023,
      "Ġbas": 2024,
      "olution": 2025,
      "As": 2026,
      "state": 2027,
      "Ġmen": 2028,
      "ĠCan": 2029,
      "rist": 2030,
      "Ġthink": 2031,
      "ponse": 2032,
      "here": 2033,
      "ires": 2034,
      "Ġcontain": 2035,
      "Ġdefault": 2036,
      "gen": 2037,
      "Ġrequire": 2038,
      "word": 2039,
      "Ġplant": 2040,
      "Ġlow": 2041,
      "Ġwomen": 2042,
      "new": 2043,
      "request": 2044,
      "Ã©": 2045,
      "ĠTr": 2046,
      "Ġcause": 2047,
      "Ġindividuals": 2048,
      "sw": 2049,
      "roll": 2050,
      "izing": 2051,
      "Ġ+=": 2052,
      "Ġinterest": 2053,
      "Ġchalleng": 2054,
      "Ġtreatment": 2055,
      "IC": 2056,
      "Ġnatural": 2057,
      "right": 2058,
      "Ġhig": 2059,
      "Ġresults": 2060,
      "len": 2061,
      "ftware": 2062,
      "ĠWhen": 2063,
      "mber": 2064,
      "print": 2065,
      "Ġavailable": 2066,
      "action": 2067,
      "Ġsym": 2068,
      "fields": 2069,
      "ilit": 2070,
      "ae": 2071,
      "Ġview": 2072,
      "Ġplayers": 2073,
      "ĠAI": 2074,
      "osed": 2075,
      "Ġconsum": 2076,
      "wards": 2077,
      "Ġgiven": 2078,
      "âĢľ": 2079,
      "elect": 2080,
      "Ġlanguage": 2081,
      "Ġmean": 2082,
      "Ġcomb": 2083,
      "inter": 2084,
      "Ġcontext": 2085,
      "Ġunderstanding": 2086,
      "Ġshort": 2087,
      "Ġcase": 2088,
      "ortun": 2089,
      "Ġlevels": 2090,
      "Ġparent": 2091,
      "Ġnetwork": 2092,
      "Ġconfig": 2093,
      "21": 2094,
      "Ġblood": 2095,
      "Ġspecies": 2096,
      "conn": 2097,
      "Ġ197": 2098,
      "Ġflow": 2099,
      "ification": 2100,
      "Ġsize": 2101,
      "Ġenh": 2102,
      "Test": 2103,
      "ibility": 2104,
      "Ġfore": 2105,
      "ules": 2106,
      "Ġbehav": 2107,
      "plit": 2108,
      "Ġmaintain": 2109,
      "Ġsource": 2110,
      "Ġprofession": 2111,
      "ĠTe": 2112,
      "Ġcontent": 2113,
      "Ġinstance": 2114,
      "vert": 2115,
      "ĠX": 2116,
      "asing": 2117,
      "Ġbeg": 2118,
      "eters": 2119,
      "Ġalong": 2120,
      "ieve": 2121,
      "arc": 2122,
      "To": 2123,
      "Ġcommunity": 2124,
      "Ġgovernment": 2125,
      "Res": 2126,
      "Ġhere": 2127,
      "ips": 2128,
      "ĠTo": 2129,
      "thon": 2130,
      "ails": 2131,
      "su": 2132,
      "Ġrest": 2133,
      "mand": 2134,
      "Ġmeans": 2135,
      "oat": 2136,
      "illion": 2137,
      "Ġbi": 2138,
      "Ġ12": 2139,
      "Ġpossible": 2140,
      "let": 2141,
      "erc": 2142,
      "org": 2143,
      "Ġreduce": 2144,
      "ĠâĢĶ": 2145,
      "Ġ**": 2146,
      "ivity": 2147,
      "Ġfour": 2148,
      "Cl": 2149,
      "How": 2150,
      "loc": 2151,
      "30": 2152,
      "default": 2153,
      "anced": 2154,
      "ruction": 2155,
      "Ġsince": 2156,
      "ĠNational": 2157,
      "Ġcy": 2158,
      "ilt": 2159,
      "ister": 2160,
      "Ġquality": 2161,
      "Ġsw": 2162,
      "return": 2163,
      "())": 2164,
      "Ġmajor": 2165,
      "Ġothers": 2166,
      "curity": 2167,
      "ĠâĢĺ": 2168,
      "ĠĠĠĠĠĠĠĠĠ": 2169,
      "Ġrespons": 2170,
      "ĠSo": 2171,
      "create": 2172,
      "crib": 2173,
      "Ġissues": 2174,
      "object": 2175,
      "rag": 2176,
      "Ġoutput": 2177,
      "Ġuntil": 2178,
      "Ġpolit": 2179,
      "Ġdisease": 2180,
      "Ġeducation": 2181,
      "code": 2182,
      "Ġcrucial": 2183,
      "now": 2184,
      "run": 2185,
      "olic": 2186,
      "Ġ15": 2187,
      "ĠAll": 2188,
      "indow": 2189,
      "64": 2190,
      "leep": 2191,
      "UT": 2192,
      "AC": 2193,
      "Name": 2194,
      "Ġexist": 2195,
      "Type": 2196,
      "Ġversion": 2197,
      "Ġtarget": 2198,
      "osp": 2199,
      "bo": 2200,
      "Ġpress": 2201,
      "Ġmax": 2202,
      "ete": 2203,
      "ilar": 2204,
      "Ġtask": 2205,
      "ĠLicense": 2206,
      "Ġpub": 2207,
      "Ġnear": 2208,
      "ze": 2209,
      "ĠBe": 2210,
      "ĠĠĠĠĊ": 2211,
      "Ġspecial": 2212,
      "cription": 2213,
      "Ġvalues": 2214,
      "del": 2215,
      "alue": 2216,
      "ĠEuro": 2217,
      "Ġacross": 2218,
      "ĠAt": 2219,
      "22": 2220,
      "Ġspace": 2221,
      "icient": 2222,
      "Ġnext": 2223,
      "ising": 2224,
      "odes": 2225,
      "ured": 2226,
      "ai": 2227,
      "Ġtoo": 2228,
      "lex": 2229,
      "ĠWorld": 2230,
      "fun": 2231,
      "Ġtypes": 2232,
      "Ġamong": 2233,
      "atory": 2234,
      "Ġchanges": 2235,
      "irc": 2236,
      "Ġ17": 2237,
      "Ġ\\": 2238,
      "Ġfree": 2239,
      "Ġpy": 2240,
      "Ġmodels": 2241,
      "An": 2242,
      "status": 2243,
      "Ġoccur": 2244,
      "uid": 2245,
      "rect": 2246,
      "Ġturn": 2247,
      "16": 2248,
      "me": 2249,
      "Ġtimes": 2250,
      "Ġproduction": 2251,
      "call": 2252,
      "iver": 2253,
      "Ġblock": 2254,
      "valid": 2255,
      "Ġdeath": 2256,
      "ledge": 2257,
      "order": 2258,
      "ours": 2259,
      "olume": 2260,
      "Ġsuper": 2261,
      "Ġnecess": 2262,
      "Ġprotect": 2263,
      "raft": 2264,
      "Ġsust": 2265,
      "ither": 2266,
      "Ġmov": 2267,
      "Ġlinks": 2268,
      "dom": 2269,
      "br": 2270,
      "RO": 2271,
      "ney": 2272,
      "Ġsens": 2273,
      "idence": 2274,
      "iting": 2275,
      "ĠShe": 2276,
      "Ġaction": 2277,
      "ĠĠĠĠĠĠĠĠĠĠĠĠĠĠĠĠĠĠĠĠĠĠĠĠĠĠĠ": 2278,
      "Ġlik": 2279,
      "Ġconsider": 2280,
      "List": 2281,
      "Ġport": 2282,
      "Ġdam": 2283,
      "rap": 2284,
      "Ġinflu": 2285,
      "Ġcomplex": 2286,
      "Ġgrowth": 2287,
      "Ġ16": 2288,
      "cy": 2289,
      "Ġaccount": 2290,
      "Ġmanagement": 2291,
      "Ġrequired": 2292,
      "ĠEn": 2293,
      "ME": 2294,
      "32": 2295,
      "Ġcharacter": 2296,
      "de": 2297,
      "Ġskills": 2298,
      "Ġrepresent": 2299,
      "write": 2300,
      "Ġhard": 2301,
      "If": 2302,
      "DE": 2303,
      "istic": 2304,
      "Ġsustain": 2305,
      "Ġrecord": 2306,
      "ptoms": 2307,
      "Ġphysical": 2308,
      "ĠAf": 2309,
      "vious": 2310,
      "Ġable": 2311,
      "iple": 2312,
      "Ġauthor": 2313,
      "Ġprogram": 2314,
      "ohn": 2315,
      "ĠMan": 2316,
      "Ġ194": 2317,
      "Ġtemper": 2318,
      "context": 2319,
      "method": 2320,
      "Ġage": 2321,
      "Ġresources": 2322,
      "Ġhapp": 2323,
      "pecially": 2324,
      "ĠWar": 2325,
      "Ġcertain": 2326,
      "Ġur": 2327,
      "Ġlay": 2328,
      "ties": 2329,
      "aging": 2330,
      "rs": 2331,
      "icro": 2332,
      "Ġpersonal": 2333,
      "ipp": 2334,
      "Ġamount": 2335,
      "Al": 2336,
      "Ġcomput": 2337,
      "Ġach": 2338,
      "oph": 2339,
      "ĠWith": 2340,
      "side": 2341,
      "aring": 2342,
      "Ġcountry": 2343,
      "utions": 2344,
      "dis": 2345,
      "result": 2346,
      "point": 2347,
      "ĠReg": 2348,
      "gress": 2349,
      "md": 2350,
      "ibr": 2351,
      "Ġservice": 2352,
      "Ġclean": 2353,
      "kwargs": 2354,
      "Ġlarg": 2355,
      "aps": 2356,
      "Ġet": 2357,
      "Ġconc": 2358,
      "ott": 2359,
      "Ġrelations": 2360,
      "Ġnut": 2361,
      "****": 2362,
      "ĠCent": 2363,
      "ĠEurope": 2364,
      "amed": 2365,
      "Ġdeterm": 2366,
      "Ġfull": 2367,
      "ĉĉĉ": 2368,
      "Ġimage": 2369,
      "Ġhelps": 2370,
      "ystem": 2371,
      "Ġsingle": 2372,
      "For": 2373,
      "Ġprim": 2374,
      "On": 2375,
      "uments": 2376,
      "icial": 2377,
      "ched": 2378,
      "ags": 2379,
      "amples": 2380,
      "ĠUS": 2381,
      "Ġ['": 2382,
      "ormal": 2383,
      "Ġmar": 2384,
      "Ġmaterials": 2385,
      "Ġdict": 2386,
      "Ġsum": 2387,
      "with": 2388,
      "ysis": 2389,
      "Ġmat": 2390,
      "nov": 2391,
      "Ġunique": 2392,
      "comp": 2393,
      "Ġseason": 2394,
      "rict": 2395,
      "Ġmot": 2396,
      "Ġbecame": 2397,
      "Ġexpected": 2398,
      "15": 2399,
      "des": 2400,
      "go": 2401,
      "Ġemploy": 2402,
      "ops": 2403,
      "Ġbuilding": 2404,
      "check": 2405,
      "clus": 2406,
      "Ġeffective": 2407,
      "dat": 2408,
      "Ġvir": 2409,
      "Ġapproach": 2410,
      "django": 2411,
      "Ġbenefits": 2412,
      "off": 2413,
      "ION": 2414,
      "Un": 2415,
      "Ġweek": 2416,
      "Ġservices": 2417,
      "Ġglobal": 2418,
      "Ġactivities": 2419,
      "Ġpolic": 2420,
      "(),": 2421,
      "Ġcome": 2422,
      "Ġ196": 2423,
      "Ġleft": 2424,
      "api": 2425,
      "eds": 2426,
      "ĠPar": 2427,
      "ourn": 2428,
      "Ġpri": 2429,
      "Ġfurther": 2430,
      "Ġloss": 2431,
      "Ġworking": 2432,
      "Ġproblems": 2433,
      "Ġcolle": 2434,
      "resh": 2435,
      "Ġespecially": 2436,
      "ĠBrit": 2437,
      "Ar": 2438,
      "Ġincrease": 2439,
      "ley": 2440,
      "Ġstrong": 2441,
      "Ġcommand": 2442,
      "Ġengine": 2443,
      "Ġheart": 2444,
      "Ġtri": 2445,
      "Ġbreak": 2446,
      "etime": 2447,
      "...": 2448,
      "ales": 2449,
      "Ġwid": 2450,
      "update": 2451,
      "Ġmarket": 2452,
      "plate": 2453,
      "Ġdest": 2454,
      "exp": 2455,
      "24": 2456,
      "Ġfail": 2457,
      "Ġdri": 2458,
      "Ġrad": 2459,
      "ĠGener": 2460,
      "Ġclear": 2461,
      "ĠAdd": 2462,
      "ĠAust": 2463,
      "Ġ[],": 2464,
      "Ġjob": 2465,
      "Re": 2466,
      "ready": 2467,
      "host": 2468,
      "eturn": 2469,
      "Ġ!": 2470,
      "aper": 2471,
      "ements": 2472,
      "Ġ$": 2473,
      "Ġyoung": 2474,
      "ĠIm": 2475,
      "fer": 2476,
      "Ġproducts": 2477,
      "array": 2478,
      "Ġproblem": 2479,
      "eral": 2480,
      "Ġgame": 2481,
      "umn": 2482,
      "Ġterm": 2483,
      "ĠGerm": 2484,
      "Ġrecogn": 2485,
      "ypes": 2486,
      "Ġconnect": 2487,
      "Ġtraining": 2488,
      "xf": 2489,
      "ĠCar": 2490,
      "Ġintegr": 2491,
      "though": 2492,
      "ĠGo": 2493,
      "Ġparam": 2494,
      "Ġaffect": 2495,
      "empt": 2496,
      "Ġlit": 2497,
      "string": 2498,
      "'])": 2499,
      "sequ": 2500,
      "Ġsymptoms": 2501,
      "ening": 2502,
      "Ġplants": 2503,
      "client": 2504,
      "Ġcontinue": 2505,
      "Ġhost": 2506,
      "med": 2507,
      "tem": 2508,
      "Ġmind": 2509,
      "Ġstress": 2510,
      "ump": 2511,
      "ancial": 2512,
      "Ġhigher": 2513,
      "ĠInst": 2514,
      "ĠMed": 2515,
      "ĠChrist": 2516,
      "Ġthings": 2517,
      "aves": 2518,
      "Ġfootball": 2519,
      "Ġcompany": 2520,
      "Ġbir": 2521,
      "Ġdistribut": 2522,
      "Ġperformance": 2523,
      "Ġopportun": 2524,
      "Ġtoget": 2525,
      "Ġcolor": 2526,
      "Ġtogether": 2527,
      "Ġcollect": 2528,
      "Ġscient": 2529,
      "Ġalways": 2530,
      "ĠPr": 2531,
      "Ġdifficult": 2532,
      "oman": 2533,
      "mat": 2534,
      "Ġside": 2535,
      "ĠCont": 2536,
      "Ġoptions": 2537,
      "error": 2538,
      "Ġexc": 2539,
      "Ġcustom": 2540,
      "Ġinput": 2541,
      "Ġdom": 2542,
      "Ġarch": 2543,
      "Ġcourse": 2544,
      "ief": 2545,
      "Ġbal": 2546,
      "Ġavoid": 2547,
      "17": 2548,
      "Ġpay": 2549,
      "ĠMay": 2550,
      "ED": 2551,
      "ociety": 2552,
      "epend": 2553,
      "verage": 2554,
      "Ġremain": 2555,
      "utils": 2556,
      "ung": 2557,
      "uation": 2558,
      "rodu": 2559,
      "oney": 2560,
      "ideo": 2561,
      "icate": 2562,
      "ĠMar": 2563,
      "Ġregular": 2564,
      "tml": 2565,
      "Ġways": 2566,
      "Ġknowledge": 2567,
      "IS": 2568,
      "ĠAfric": 2569,
      "Ġput": 2570,
      "ites": 2571,
      "Ġtoday": 2572,
      "'.": 2573,
      "ĠSouth": 2574,
      "Ġcode": 2575,
      "23": 2576,
      "fr": 2577,
      "aries": 2578,
      "Ġfactors": 2579,
      "Ġargs": 2580,
      "Ġability": 2581,
      "Ġfund": 2582,
      "urch": 2583,
      "Ġtot": 2584,
      "Ġhealthy": 2585,
      "Ġcreated": 2586,
      "inary": 2587,
      "Ġmedical": 2588,
      "Ġaddition": 2589,
      "Ġmach": 2590,
      "part": 2591,
      "Ġann": 2592,
      "Ġsafety": 2593,
      "Ġdeb": 2594,
      "Ġey": 2595,
      "Ġlower": 2596,
      "ued": 2597,
      "aff": 2598,
      "ged": 2599,
      "ison": 2600,
      "ĠCal": 2601,
      "Ġworks": 2602,
      "ĠSu": 2603,
      "ta": 2604,
      "Ġwon": 2605,
      "ĠWest": 2606,
      "Ġchallenges": 2607,
      "Ġprovides": 2608,
      "UR": 2609,
      "Ġdescrib": 2610,
      "Ġabs": 2611,
      "ims": 2612,
      "Ġid": 2613,
      "We": 2614,
      "light": 2615,
      "da": 2616,
      "trans": 2617,
      "Ġcity": 2618,
      "Ġ!=": 2619,
      "Ġimplement": 2620,
      ".\"\"\"": 2621,
      "AP": 2622,
      "mission": 2623,
      "ably": 2624,
      "Ġred": 2625,
      "ĠJohn": 2626,
      "Ġmembers": 2627,
      "14": 2628,
      "tra": 2629,
      "Ġemot": 2630,
      "ague": 2631,
      "Ġmakes": 2632,
      "Ġdays": 2633,
      "reng": 2634,
      "Ġeither": 2635,
      "oring": 2636,
      "Ġmethods": 2637,
      "Ġsoftware": 2638,
      "Ġcompon": 2639,
      "Ġassociated": 2640,
      "ĠAss": 2641,
      "External": 2642,
      "Ġtools": 2643,
      "Ġindustry": 2644,
      "ething": 2645,
      "Ġsure": 2646,
      "bum": 2647,
      "ĠCount": 2648,
      "node": 2649,
      "When": 2650,
      "Ġoverall": 2651,
      "rand": 2652,
      "().": 2653,
      "hern": 2654,
      "Ġmusic": 2655,
      "Ġoffer": 2656,
      "Ġpack": 2657,
      "Ġeffects": 2658,
      "ift": 2659,
      "Cont": 2660,
      "Ġoption": 2661,
      "atform": 2662,
      "Ġsecurity": 2663,
      "Ġbegin": 2664,
      "uration": 2665,
      "Ġsugg": 2666,
      "Ġsuggest": 2667,
      "aken": 2668,
      "Ġpast": 2669,
      "issions": 2670,
      "Ġsimilar": 2671,
      "Ġ2009": 2672,
      "Ġver": 2673,
      "input": 2674,
      "--------------------------------": 2675,
      "Ġenvironmental": 2676,
      "obj": 2677,
      "Ġlikely": 2678,
      "attr": 2679,
      "ians": 2680,
      "Ġparticip": 2681,
      "Ġrelationship": 2682,
      "aching": 2683,
      "ufact": 2684,
      "Ġalready": 2685,
      "ks": 2686,
      "Ġneg": 2687,
      "Ġdiscuss": 2688,
      "Ġseries": 2689,
      "output": 2690,
      "map": 2691,
      "bon": 2692,
      "Ġill": 2693,
      "Ġindex": 2694,
      "CO": 2695,
      "Ġwhether": 2696,
      "Ġlot": 2697,
      "iences": 2698,
      "Ġsuff": 2699,
      "iation": 2700,
      "Ġpattern": 2701,
      "CT": 2702,
      "item": 2703,
      "Ġdiet": 2704,
      "Ġstring": 2705,
      "length": 2706,
      "ctions": 2707,
      "ges": 2708,
      "ctor": 2709,
      "aced": 2710,
      "Ġir": 2711,
      "ait": 2712,
      "based": 2713,
      "comes": 2714,
      "Ġfri": 2715,
      "13": 2716,
      "Ġcompet": 2717,
      "Ġdog": 2718,
      "Ġcontribut": 2719,
      "Ġpriv": 2720,
      "Ġcases": 2721,
      "ulate": 2722,
      "json": 2723,
      "ension": 2724,
      "asc": 2725,
      "Ġ30": 2726,
      "ĠSome": 2727,
      "ĠOne": 2728,
      "Ġcentury": 2729,
      "Ġbase": 2730,
      "dev": 2731,
      "Ġfilm": 2732,
      "'):": 2733,
      "Ġ100": 2734,
      "response": 2735,
      "Ġstrateg": 2736,
      "Ġpers": 2737,
      "orage": 2738,
      "Ġpopular": 2739,
      "Ġallows": 2740,
      "Ġhouse": 2741,
      "There": 2742,
      "emic": 2743,
      "Ġ14": 2744,
      "Ġnecessary": 2745,
      "Ġwhy": 2746,
      "ĠGod": 2747,
      "oration": 2748,
      "ĠRep": 2749,
      "ival": 2750,
      "active": 2751,
      "ĠChe": 2752,
      "Ġfar": 2753,
      "Set": 2754,
      "ground": 2755,
      "Ġtrack": 2756,
      "most": 2757,
      "NA": 2758,
      "xb": 2759,
      "Ġcirc": 2760,
      "lying": 2761,
      "Ġmessage": 2762,
      "ĠYork": 2763,
      "Ġhaving": 2764,
      "Ġitem": 2765,
      "no": 2766,
      "ĠFl": 2767,
      "Ġsay": 2768,
      "Ġground": 2769,
      "Ġmental": 2770,
      "Ġhold": 2771,
      "Ġbrain": 2772,
      "elling": 2773,
      "Ġcut": 2774,
      "Ġsoil": 2775,
      "Ġstory": 2776,
      "Ġmeet": 2777,
      "Ġclimate": 2778,
      "ET": 2779,
      "Ġchem": 2780,
      "Ġcells": 2781,
      "Ġcountries": 2782,
      "ĠWhile": 2783,
      "mbol": 2784,
      "process": 2785,
      "wh": 2786,
      "iciency": 2787,
      "Ġquick": 2788,
      "pre": 2789,
      "istance": 2790,
      "ĠSchool": 2791,
      "ĠTest": 2792,
      "\"),": 2793,
      "Ġgroups": 2794,
      "split": 2795,
      "Ġfinancial": 2796,
      "Ġusually": 2797,
      "ender": 2798,
      "ĠGe": 2799,
      "rapy": 2800,
      "enn": 2801,
      "Ġemer": 2802,
      "Ġfrequ": 2803,
      "Ġpublished": 2804,
      "fe": 2805,
      "Ġnature": 2806,
      "iques": 2807,
      "thing": 2808,
      "ulations": 2809,
      "Ġidentify": 2810,
      "aling": 2811,
      "istory": 2812,
      "Ġmatch": 2813,
      "Ġhistor": 2814,
      "ades": 2815,
      "rate": 2816,
      "uel": 2817,
      "Ġmodern": 2818,
      "chan": 2819,
      "Ġgive": 2820,
      "Ġevents": 2821,
      "Ġposition": 2822,
      "Ġcompan": 2823,
      "Ġrecomm": 2824,
      "Not": 2825,
      "yl": 2826,
      "Ġcopy": 2827,
      "Ġonline": 2828,
      "oud": 2829,
      "Ġep": 2830,
      "Ġnational": 2831,
      "Ġabove": 2832,
      "tim": 2833,
      "AD": 2834,
      "Ġrout": 2835,
      "ĠNorth": 2836,
      "amin": 2837,
      "etic": 2838,
      "OT": 2839,
      "Ġla": 2840,
      "pper": 2841,
      "Ġskin": 2842,
      "Ġgeneral": 2843,
      "Ġcondition": 2844,
      "Ġsomething": 2845,
      "Ġsleep": 2846,
      "Ġactivity": 2847,
      "hand": 2848,
      "Ġweight": 2849,
      "earch": 2850,
      "Ġbuilt": 2851,
      "Ġteac": 2852,
      "ĠHealth": 2853,
      "Ġattack": 2854,
      "elves": 2855,
      "Ġstatus": 2856,
      "augh": 2857,
      "Ġaway": 2858,
      "Ġarticle": 2859,
      "ĠWhat": 2860,
      "Id": 2861,
      "Ġtotal": 2862,
      "ĠEnglish": 2863,
      "care": 2864,
      "Ġconcern": 2865,
      "][": 2866,
      "Âł": 2867,
      "Ġcompl": 2868,
      "ĠGu": 2869,
      "Ġerror": 2870,
      "ada": 2871,
      "Ġleading": 2872,
      "Ġstreng": 2873,
      "ences": 2874,
      "Ġpopulation": 2875,
      "alf": 2876,
      "Ġpractice": 2877,
      "ounds": 2878,
      "actions": 2879,
      "Ġsent": 2880,
      "Ġemb": 2881,
      "arr": 2882,
      "Ġfeed": 2883,
      "Ġnode": 2884,
      "Data": 2885,
      "Ġparts": 2886,
      "orpor": 2887,
      "ament": 2888,
      "Ġpractices": 2889,
      "image": 2890,
      "ands": 2891,
      "atives": 2892,
      "iate": 2893,
      "Ġdesigned": 2894,
      "Ġprofessional": 2895,
      "xy": 2896,
      "lib": 2897,
      "Ġdeep": 2898,
      "AB": 2899,
      "Ġrev": 2900,
      "ores": 2901,
      "label": 2902,
      "Ġmillion": 2903,
      "Ġtraditional": 2904,
      "oken": 2905,
      "ttps": 2906,
      "Ġlittle": 2907,
      "ĠJu": 2908,
      "Ġsite": 2909,
      "ider": 2910,
      "File": 2911,
      "================": 2912,
      "Ġdocument": 2913,
      "Ġassess": 2914,
      "ĠState": 2915,
      "Ġexerc": 2916,
      "annel": 2917,
      "Ġtable": 2918,
      "ude": 2919,
      "ography": 2920,
      "99": 2921,
      "Ġpatients": 2922,
      "ene": 2923,
      "pri": 2924,
      "Ġconcept": 2925,
      "iddle": 2926,
      "Ġkind": 2927,
      "ager": 2928,
      "Ġanim": 2929,
      "ĠEar": 2930,
      "CH": 2931,
      "isions": 2932,
      "ĠAug": 2933,
      "IL": 2934,
      "Ġincreasing": 2935,
      "mark": 2936,
      "ero": 2937,
      "iles": 2938,
      "Ġlo": 2939,
      "Ġneeded": 2940,
      "Ġ13": 2941,
      "Ġfiles": 2942,
      "Ġsimple": 2943,
      "Ġeconomic": 2944,
      "Ġfeatures": 2945,
      "Ġcomes": 2946,
      "iet": 2947,
      "Ġlet": 2948,
      "Ġbig": 2949,
      "ese": 2950,
      "Ġdigital": 2951,
      "aily": 2952,
      "oll": 2953,
      "Ġmanufact": 2954,
      "Ġappear": 2955,
      "oding": 2956,
      "Ġfall": 2957,
      "Ġprec": 2958,
      "illed": 2959,
      "Ġcapt": 2960,
      "apan": 2961,
      "minist": 2962,
      "Ġurl": 2963,
      "Ġri": 2964,
      "Ġcritical": 2965,
      "ĠAustral": 2966,
      "By": 2967,
      "Ġprevious": 2968,
      "Ġleast": 2969,
      "Ġsubst": 2970,
      "rad": 2971,
      "Ġparticularly": 2972,
      "Ġge": 2973,
      "Ġrelated": 2974,
      "ĠAfter": 2975,
      "Ġpressure": 2976,
      "sl": 2977,
      "ĠJan": 2978,
      "message": 2979,
      "na": 2980,
      "Ġcancer": 2981,
      "``": 2982,
      "Ġ25": 2983,
      "0000": 2984,
      "xc": 2985,
      "proper": 2986,
      "Ġload": 2987,
      "Ġpercent": 2988,
      "Ġrow": 2989,
      "uary": 2990,
      "ING": 2991,
      "Ġproviding": 2992,
      "lied": 2993,
      "Ġregion": 2994,
      "Ġwebs": 2995,
      "Ġlive": 2996,
      "ĠMin": 2997,
      "40": 2998,
      "Pl": 2999,
      "Ġconsidered": 3000,
      "Get": 3001,
      "ptember": 3002,
      "Ġincludes": 3003,
      "Ġwords": 3004,
      "pass": 3005,
      "Ġenough": 3006,
      "eff": 3007,
      "ĠBritish": 3008,
      "Ġvol": 3009,
      "Ġsix": 3010,
      "Ġsys": 3011,
      "Ġapplications": 3012,
      "wid": 3013,
      "istics": 3014,
      "Ã¡": 3015,
      "Ġintrodu": 3016,
      "ĠDes": 3017,
      "ĠĠĠĠĠĠĠĠĊ": 3018,
      "He": 3019,
      "Ġterms": 3020,
      "iol": 3021,
      "Ġask": 3022,
      "que": 3023,
      "Ġlif": 3024,
      "sg": 3025,
      "ĠĠĠĠĠĠĠĠĠĠĠĠĠĠĠĠĠĠ": 3026,
      "Ġharm": 3027,
      "Add": 3028,
      "nown": 3029,
      "Ġvalid": 3030,
      "Ġfields": 3031,
      "ĠQu": 3032,
      "abit": 3033,
      "Ġdone": 3034,
      "ster": 3035,
      "Ġinstall": 3036,
      "Ġpo": 3037,
      "like": 3038,
      "ached": 3039,
      "Ġstructure": 3040,
      "Ġseen": 3041,
      "((": 3042,
      "Ġsong": 3043,
      "Ġencou": 3044,
      "Ġanalysis": 3045,
      "iment": 3046,
      "Ġphot": 3047,
      "ters": 3048,
      "just": 3049,
      "acc": 3050,
      "ried": 3051,
      "ensive": 3052,
      "Ġbehavior": 3053,
      "Ġbar": 3054,
      "level": 3055,
      "Ġwin": 3056,
      "erous": 3057,
      "Ġcreating": 3058,
      "Ġaccur": 3059,
      "ĠHis": 3060,
      "ober": 3061,
      "sych": 3062,
      "AG": 3063,
      ">>": 3064,
      "astic": 3065,
      "Ġsafe": 3066,
      "Ġonce": 3067,
      "ĠNo": 3068,
      "imum": 3069,
      "Ġinnov": 3070,
      "icles": 3071,
      "Ġ195": 3072,
      "np": 3073,
      "params": 3074,
      "Ġ,": 3075,
      "hold": 3076,
      "Ġincreased": 3077,
      "ĠGeneral": 3078,
      "lin": 3079,
      "ana": 3080,
      "Ġpromot": 3081,
      "################################": 3082,
      "Ġprovided": 3083,
      "ĠIndia": 3084,
      "Sh": 3085,
      "Ġgra": 3086,
      "Ġfive": 3087,
      "Ġmultiple": 3088,
      "osing": 3089,
      "Ġoil": 3090,
      "Ġgrad": 3091,
      "sum": 3092,
      "Ġfinal": 3093,
      "ĉĉĉĉ": 3094,
      "Ġcalc": 3095,
      "Ġadapt": 3096,
      "Ġ--": 3097,
      "Ġpositive": 3098,
      "term": 3099,
      "Ġdamage": 3100,
      "</": 3101,
      "Ġpage": 3102,
      "ux": 3103,
      "tx": 3104,
      "Ġtransform": 3105,
      "ĠAugust": 3106,
      "Ġconsist": 3107,
      "Ġalbum": 3108,
      "Ġexec": 3109,
      "const": 3110,
      "Ġnever": 3111,
      "html": 3112,
      "ership": 3113,
      "'))": 3114,
      "Ġcommit": 3115,
      "eration": 3116,
      "Ġsays": 3117,
      "df": 3118,
      "Ġsun": 3119,
      "Ġdeveloped": 3120,
      "ĠOct": 3121,
      "Ġtim": 3122,
      "ĠCO": 3123,
      "80": 3124,
      "rip": 3125,
      "ĠAm": 3126,
      "fort": 3127,
      "rid": 3128,
      "ĠStud": 3129,
      "Ġrights": 3130,
      "Ġgoing": 3131,
      "Ġinternational": 3132,
      "module": 3133,
      "Ġsuccessful": 3134,
      "adata": 3135,
      "Ġbegan": 3136,
      "Ġstudies": 3137,
      "Ġthroughout": 3138,
      "http": 3139,
      "sing": 3140,
      "izes": 3141,
      "oes": 3142,
      "Ġaud": 3143,
      "aches": 3144,
      "base": 3145,
      "ĠAct": 3146,
      "down": 3147,
      "izations": 3148,
      "Ġtechniques": 3149,
      "Ġsense": 3150,
      "UL": 3151,
      "Ġprior": 3152,
      "Ġcultural": 3153,
      "Ġreceived": 3154,
      "Ġcat": 3155,
      "Ġdemand": 3156,
      "shape": 3157,
      "sk": 3158,
      "Ġsources": 3159,
      "izer": 3160,
      "Ġ11": 3161,
      "rast": 3162,
      "Ġheat": 3163,
      "Ġwriting": 3164,
      "Ġrate": 3165,
      "Ġnames": 3166,
      "Ġconduct": 3167,
      "ĠAb": 3168,
      "overed": 3169,
      "Ġanaly": 3170,
      "doc": 3171,
      "box": 3172,
      "ĠInt": 3173,
      "Ġsurface": 3174,
      "Ġgain": 3175,
      "Ġscience": 3176,
      "Ġhowever": 3177,
      "Ġreason": 3178,
      "ivil": 3179,
      "Ġautom": 3180,
      "ications": 3181,
      "quest": 3182,
      "names": 3183,
      "Ġmedia": 3184,
      "ologies": 3185,
      "ĠSeptember": 3186,
      "Ġroot": 3187,
      "rc": 3188,
      "tes": 3189,
      "osis": 3190,
      "Ġextra": 3191,
      "table": 3192,
      "ournal": 3193,
      "omet": 3194,
      "IG": 3195,
      "ĠCons": 3196,
      "ĠCo": 3197,
      "Key": 3198,
      "Ind": 3199,
      "Ġmass": 3200,
      "Ġsel": 3201,
      "Ġcamp": 3202,
      "Ġpoints": 3203,
      "iction": 3204,
      "MP": 3205,
      "values": 3206,
      "Ġclient": 3207,
      "pose": 3208,
      "cript": 3209,
      "Ġpolitical": 3210,
      "ĠNot": 3211,
      "Ġusers": 3212,
      "Ġestablished": 3213,
      "Ġliving": 3214,
      "Ġshape": 3215,
      "Ġdevice": 3216,
      "build": 3217,
      "Ġcompanies": 3218,
      "title": 3219,
      "rench": 3220,
      "Ġec": 3221,
      "flow": 3222,
      "ls": 3223,
      "www": 3224,
      "rep": 3225,
      "ĠMe": 3226,
      "Ġaccording": 3227,
      "Ġplayed": 3228,
      "Ġresearc": 3229,
      "Ġdeg": 3230,
      "ĠPol": 3231,
      "reed": 3232,
      "uk": 3233,
      "Ġmicro": 3234,
      "Ġword": 3235,
      "vere": 3236,
      "hens": 3237,
      "Ġcannot": 3238,
      "icated": 3239,
      "Ġstop": 3240,
      "Ġtemperature": 3241,
      "Ġisinstance": 3242,
      "ounter": 3243,
      "Ġcred": 3244,
      "ĠDep": 3245,
      "Ġmock": 3246,
      "Ġelectric": 3247,
      "filter": 3248,
      "Ġfire": 3249,
      "Ġrather": 3250,
      "Ġoriginal": 3251,
      "rown": 3252,
      "Ġ``": 3253,
      "Ġlimit": 3254,
      "Ġund": 3255,
      "ike": 3256,
      "aly": 3257,
      "ĠApp": 3258,
      "Ġaspect": 3259,
      "uck": 3260,
      "Ġax": 3261,
      "ENT": 3262,
      "Ġguid": 3263,
      "Ġdevices": 3264,
      "ĠCounty": 3265,
      "Ġvariety": 3266,
      "60": 3267,
      "itect": 3268,
      "ĠPe": 3269,
      "Ġdraw": 3270,
      "Ġste": 3271,
      "Ġsearch": 3272,
      "Ġlives": 3273,
      "Ġblack": 3274,
      "ilitary": 3275,
      "Ob": 3276,
      "You": 3277,
      "cs": 3278,
      "arser": 3279,
      "ĠKing": 3280,
      "duc": 3281,
      "Ġtaking": 3282,
      "Ġcommunities": 3283,
      "Ġmoney": 3284,
      "Ġled": 3285,
      "ama": 3286,
      "Ġalign": 3287,
      "content": 3288,
      "oon": 3289,
      "deb": 3290,
      "Ġtook": 3291,
      "Ġsal": 3292,
      "color": 3293,
      "Ġplatform": 3294,
      "hib": 3295,
      "itch": 3296,
      "cient": 3297,
      "artment": 3298,
      "Ġbelow": 3299,
      "Ġcorrect": 3300,
      "aim": 3301,
      "query": 3302,
      "Ġface": 3303,
      "Ġquestion": 3304,
      "LO": 3305,
      "Ġgreen": 3306,
      "Ġ'''": 3307,
      "Ġcommunication": 3308,
      "itionally": 3309,
      "ĠJuly": 3310,
      "Ġentire": 3311,
      "Ġscre": 3312,
      "Ġtrue": 3313,
      "ĠJapan": 3314,
      "rors": 3315,
      "ript": 3316,
      "One": 3317,
      "men": 3318,
      "utes": 3319,
      "ĠDis": 3320,
      ",\"": 3321,
      "standing": 3322,
      "oice": 3323,
      "Ġsect": 3324,
      "parse": 3325,
      "ille": 3326,
      "pack": 3327,
      "hood": 3328,
      "Ġenhance": 3329,
      "Ġfamil": 3330,
      "ĠYour": 3331,
      "ĠEd": 3332,
      "net": 3333,
      "ĠOctober": 3334,
      "Ġculture": 3335,
      "pan": 3336,
      "Ġresource": 3337,
      "Ġmeaning": 3338,
      "cret": 3339,
      "Im": 3340,
      "Ġfarm": 3341,
      "msg": 3342,
      "source": 3343,
      "ervation": 3344,
      "rig": 3345,
      "Ġjoin": 3346,
      "Ġimportance": 3347,
      "uff": 3348,
      "Ġquestions": 3349,
      "ĠDr": 3350,
      "ĠMarch": 3351,
      "avor": 3352,
      "Value": 3353,
      "Ġinj": 3354,
      "Ġansw": 3355,
      "ĠRuss": 3356,
      "Ġprinc": 3357,
      "Ġrequires": 3358,
      "pril": 3359,
      "ĠJune": 3360,
      "ino": 3361,
      "pir": 3362,
      "Ġstates": 3363,
      "irm": 3364,
      "XX": 3365,
      "Ġattention": 3366,
      "ĠPer": 3367,
      "Ġsepar": 3368,
      "Ġfig": 3369,
      "Ġtitle": 3370,
      "Ġdate": 3371,
      "ĠPart": 3372,
      "Ġcareer": 3373,
      "Ġstyle": 3374,
      "ailed": 3375,
      "files": 3376,
      "Ġmechan": 3377,
      "Ġtel": 3378,
      "gl": 3379,
      "ĠII": 3380,
      "Ġtypically": 3381,
      "Ġnamed": 3382,
      "Ġelements": 3383,
      "ened": 3384,
      "Ġframe": 3385,
      "coming": 3386,
      "ixed": 3387,
      "Ġobserv": 3388,
      "gricult": 3389,
      "},": 3390,
      "ĠPublic": 3391,
      "Ġdiv": 3392,
      "gar": 3393,
      "Ġmonitor": 3394,
      "Int": 3395,
      "Ġforms": 3396,
      "Ġveh": 3397,
      "ronic": 3398,
      "Ġhom": 3399,
      "Ġtree": 3400,
      "Ġsubject": 3401,
      "Ġtaken": 3402,
      "Ġstudent": 3403,
      "Ġconnection": 3404,
      "Ġgames": 3405,
      "Ġachieve": 3406,
      "Ġeval": 3407,
      "items": 3408,
      "Ġuses": 3409,
      "Is": 3410,
      "Ġaware": 3411,
      "IP": 3412,
      "rest": 3413,
      "Ġstay": 3414,
      "Ġexplore": 3415,
      "ellig": 3416,
      "US": 3417,
      "bar": 3418,
      "Ġtax": 3419,
      "Ġmember": 3420,
      "Ġchemical": 3421,
      "[:": 3422,
      "ĠĠĠĠĠĠĠĠĠĠĠĠĠ": 3423,
      "anch": 3424,
      "Ġensuring": 3425,
      "Ġtransport": 3426,
      "Ġthreat": 3427,
      "Ġdaily": 3428,
      "Ġlocated": 3429,
      "Ġprogress": 3430,
      "Ġgas": 3431,
      "Ġbroad": 3432,
      "Ġvideo": 3433,
      "Ġprimary": 3434,
      "Ġexpress": 3435,
      "ellow": 3436,
      "link": 3437,
      "ĠThat": 3438,
      "Ġdb": 3439,
      "lands": 3440,
      "mselves": 3441,
      "Ġ]": 3442,
      "But": 3443,
      "ken": 3444,
      "rial": 3445,
      "Ġprograms": 3446,
      "abase": 3447,
      "Ġregard": 3448,
      "agement": 3449,
      "ccording": 3450,
      "ĠAmerica": 3451,
      "Ġoffers": 3452,
      "aged": 3453,
      "Ġprocesses": 3454,
      "Ġtowards": 3455,
      "spec": 3456,
      "mun": 3457,
      "Ġthemselves": 3458,
      "Ġpaper": 3459,
      "Ġutil": 3460,
      "Ġdiagn": 3461,
      "Ġincluded": 3462,
      "Ġwhite": 3463,
      "server": 3464,
      "Ġaccept": 3465,
      "ĠAN": 3466,
      "Ġreflect": 3467,
      "Ġcontact": 3468,
      "Ġ(\"": 3469,
      "Ġestablish": 3470,
      "Ġproduce": 3471,
      "Ġrefer": 3472,
      "Ġfeature": 3473,
      "Ġstrategies": 3474,
      "Ġshare": 3475,
      "oved": 3476,
      "pid": 3477,
      "encies": 3478,
      "related": 3479,
      "Ġmonths": 3480,
      "ĠĠĠĠĠĠĠĠĠĠĠĠĠĠĠĠĠĠĠĠĠĠĠĠĠĠĠĠĠĠĠ": 3481,
      "Ġreleased": 3482,
      "Ġadditional": 3483,
      "lease": 3484,
      "Ġprob": 3485,
      "year": 3486,
      "het": 3487,
      "ĠRec": 3488,
      "Ġreview": 3489,
      "ĠWill": 3490,
      "itute": 3491,
      "ĠCity": 3492,
      "Ġmeasure": 3493,
      "parent": 3494,
      "ĠSw": 3495,
      "erve": 3496,
      "Ġactive": 3497,
      "ha": 3498,
      "ban": 3499,
      "HO": 3500,
      "ovember": 3501,
      "ocol": 3502,
      "PO": 3503,
      "Ġsustainable": 3504,
      "ĠReturn": 3505,
      "Ġsociety": 3506,
      "Ġliter": 3507,
      "Ġsat": 3508,
      "Ġ2010": 3509,
      "ĠJanuary": 3510,
      "Ġorigin": 3511,
      "Ġfish": 3512,
      "Ġefficient": 3513,
      "Ġsn": 3514,
      "board": 3515,
      "cast": 3516,
      "ui": 3517,
      "post": 3518,
      "Ġpie": 3519,
      "ensor": 3520,
      "cember": 3521,
      "asons": 3522,
      "gn": 3523,
      "Ġlines": 3524,
      "Ġstandard": 3525,
      "keys": 3526,
      "Ġapplication": 3527,
      "Ġrepl": 3528,
      "irit": 3529,
      "Ġheld": 3530,
      "Ġlonger": 3531,
      "ĠNe": 3532,
      "Ġreading": 3533,
      "(_": 3534,
      "Ġhar": 3535,
      "ancing": 3536,
      "find": 3537,
      "joy": 3538,
      "avy": 3539,
      "root": 3540,
      "lim": 3541,
      "Ġcou": 3542,
      "Ġlength": 3543,
      "itable": 3544,
      "ĠArt": 3545,
      "Ġwhole": 3546,
      "ĠApril": 3547,
      "Ġeasy": 3548,
      "change": 3549,
      "Ġclose": 3550,
      "Ġissue": 3551,
      "xd": 3552,
      "debug": 3553,
      "lear": 3554,
      "Ġdecl": 3555,
      "Ġparents": 3556,
      "ĠĠĠĠĠĠĠĠĠĠĠĠ": 3557,
      "Ġanimals": 3558,
      "objects": 3559,
      "Ġdru": 3560,
      "open": 3561,
      "Ġbring": 3562,
      "Ġlocation": 3563,
      "Ġseek": 3564,
      "Ġformer": 3565,
      "iance": 3566,
      "vey": 3567,
      "ĠDist": 3568,
      "Ġstarted": 3569,
      "Ġobjects": 3570,
      "Ġcel": 3571,
      "ipment": 3572,
      "ambda": 3573,
      "Ġproperty": 3574,
      "ql": 3575,
      "Ġ193": 3576,
      "ĠMus": 3577,
      "})": 3578,
      "Ġexam": 3579,
      "HE": 3580,
      "65": 3581,
      "pat": 3582,
      "ulated": 3583,
      "pite": 3584,
      "Ġprojects": 3585,
      "otal": 3586,
      "Ġ50": 3587,
      "Ġhyd": 3588,
      "known": 3589,
      "Ġcarbon": 3590,
      "Ġwritten": 3591,
      "auth": 3592,
      "Ġlabel": 3593,
      "oo": 3594,
      "Ġful": 3595,
      "Ġadded": 3596,
      "ica": 3597,
      "Ġresearchers": 3598,
      "Ġunit": 3599,
      "Ġrespect": 3600,
      "Ġitself": 3601,
      "Ġlack": 3602,
      "With": 3603,
      "filename": 3604,
      "Ġsettings": 3605,
      "ĠColle": 3606,
      "Ġforce": 3607,
      "Ġhealthcare": 3608,
      "Ġsymbol": 3609,
      "ĠSee": 3610,
      "Ġpredict": 3611,
      "Ġever": 3612,
      "Ġrelig": 3613,
      "=[": 3614,
      "Ġaltern": 3615,
      "icip": 3616,
      "Ġshows": 3617,
      "iam": 3618,
      "Ġprote": 3619,
      "abilities": 3620,
      "Ġcls": 3621,
      "Ġappropri": 3622,
      "equal": 3623,
      "ervice": 3624,
      "ram": 3625,
      "90": 3626,
      "ĠMon": 3627,
      "Ġcollab": 3628,
      "attle": 3629,
      "istry": 3630,
      "ĠPy": 3631,
      "urg": 3632,
      "main": 3633,
      "ĠHere": 3634,
      "ĠIndian": 3635,
      "Ġwild": 3636,
      "Ġprep": 3637,
      "Ġfru": 3638,
      "Ġgard": 3639,
      "Ġbird": 3640,
      "Ġproperties": 3641,
      "Ġpatient": 3642,
      "En": 3643,
      "Ġconstruction": 3644,
      "70": 3645,
      "lines": 3646,
      "Ġeth": 3647,
      "Ġfilms": 3648,
      "xe": 3649,
      "ĠRiver": 3650,
      "Ġwrite": 3651,
      "Ġsignificantly": 3652,
      "Ġformat": 3653,
      "Ġcame": 3654,
      "28": 3655,
      "Ġthird": 3656,
      "Ġgoals": 3657,
      "pen": 3658,
      "Ġinvolves": 3659,
      "ĠRed": 3660,
      "tual": 3661,
      "block": 3662,
      "ults": 3663,
      "types": 3664,
      "Ġwaste": 3665,
      "book": 3666,
      "Ġweb": 3667,
      "project": 3668,
      "Ġwebsite": 3669,
      "target": 3670,
      "Ġsec": 3671,
      "ĠNovember": 3672,
      "Ġschools": 3673,
      "Ġreducing": 3674,
      "Ġhours": 3675,
      "last": 3676,
      "Ġinitial": 3677,
      "Ġnormal": 3678,
      "Ġevidence": 3679,
      "ĠChina": 3680,
      "ML": 3681,
      "ĠEm": 3682,
      "ync": 3683,
      "ĠFrom": 3684,
      "Ġmovement": 3685,
      "Ġhalf": 3686,
      "erate": 3687,
      "ools": 3688,
      "rix": 3689,
      "used": 3690,
      "oe": 3691,
      "Ġyet": 3692,
      "imin": 3693,
      "Ġgrowing": 3694,
      "ĠDecember": 3695,
      "Ġtown": 3696,
      "Ġproduced": 3697,
      "born": 3698,
      "Ġtests": 3699,
      "Ġpan": 3700,
      "Ġpolicy": 3701,
      "Ġinstead": 3702,
      "Ġroad": 3703,
      "ius": 3704,
      "abled": 3705,
      "Ġrob": 3706,
      "Ġeffectively": 3707,
      "rack": 3708,
      "Ġfoods": 3709,
      "ibrary": 3710,
      "ĠGl": 3711,
      "100": 3712,
      "ĠHigh": 3713,
      "'\\": 3714,
      "See": 3715,
      "Ġdecision": 3716,
      "uild": 3717,
      "Ġspread": 3718,
      "event": 3719,
      "itation": 3720,
      "arily": 3721,
      "ils": 3722,
      "erg": 3723,
      "Ġdoesn": 3724,
      "Ġlove": 3725,
      "Ġindepend": 3726,
      "Ġinvolved": 3727,
      "lay": 3728,
      "Ġvill": 3729,
      "xa": 3730,
      "vant": 3731,
      "Ġcomplete": 3732,
      "bit": 3733,
      "PE": 3734,
      "Ġdeveloping": 3735,
      "ternet": 3736,
      "Ġdetails": 3737,
      "do": 3738,
      "fect": 3739,
      "Ġenjoy": 3740,
      "Ġtalk": 3741,
      "ony": 3742,
      "Ġquery": 3743,
      "ynam": 3744,
      "Ġvisit": 3745,
      "Ġsurv": 3746,
      "Ġrecent": 3747,
      "force": 3748,
      "Ġreally": 3749,
      "29": 3750,
      "room": 3751,
      "Ġarray": 3752,
      "Ġefficiency": 3753,
      "Ġactually": 3754,
      "current": 3755,
      "ses": 3756,
      "Ġcauses": 3757,
      "being": 3758,
      "core": 3759,
      "Ġplayer": 3760,
      "session": 3761,
      "Ġattempt": 3762,
      "Ġ24": 3763,
      "xi": 3764,
      "ampions": 3765,
      "ructure": 3766,
      "Ġcaused": 3767,
      "Ġsection": 3768,
      "itude": 3769,
      "Ġsche": 3770,
      "Ġmiss": 3771,
      "airs": 3772,
      "war": 3773,
      "ebru": 3774,
      "Ġgoal": 3775,
      "itution": 3776,
      "Ġ>>>": 3777,
      "lock": 3778,
      "Ġsolar": 3779,
      "Time": 3780,
      "top": 3781,
      "env": 3782,
      "bre": 3783,
      "ogle": 3784,
      "Ġfit": 3785,
      "ĠBar": 3786,
      "Ġhy": 3787,
      "____": 3788,
      "Ġul": 3789,
      "ebruary": 3790,
      "Ġut": 3791,
      "Ġexperiences": 3792,
      "can": 3793,
      "Ġlegal": 3794,
      "Ġdirectly": 3795,
      "Ġlate": 3796,
      "Ġcomputer": 3797,
      "Ġsolutions": 3798,
      "FA": 3799,
      "Ġcover": 3800,
      "Ġitems": 3801,
      "bor": 3802,
      "uous": 3803,
      "Ġquickly": 3804,
      "ĠSm": 3805,
      "DO": 3806,
      "Ġremove": 3807,
      "Ġmodule": 3808,
      "Ġtesting": 3809,
      "Ġslow": 3810,
      "ÃŃ": 3811,
      "Ġcosts": 3812,
      "MA": 3813,
      "gor": 3814,
      "orted": 3815,
      "acity": 3816,
      "ĠFrench": 3817,
      "Ġjson": 3818,
      "exec": 3819,
      "Ġcomponents": 3820,
      "Ġpsych": 3821,
      "ĠRob": 3822,
      "rypt": 3823,
      "Ġidea": 3824,
      "While": 3825,
      "Ġsupply": 3826,
      "float": 3827,
      "Form": 3828,
      "Ġ},": 3829,
      "Text": 3830,
      "Ġbatter": 3831,
      "Ġclos": 3832,
      "Ġinfluence": 3833,
      "Ġselect": 3834,
      "','": 3835,
      "range": 3836,
      "Ġextrem": 3837,
      "Char": 3838,
      "Ġresid": 3839,
      "Ġwide": 3840,
      "Ġaccom": 3841,
      "Ġsteps": 3842,
      "Ġopportunities": 3843,
      "Ġthought": 3844,
      "Ġcompre": 3845,
      "Ġtravel": 3846,
      "Ġlogging": 3847,
      "Ġsound": 3848,
      "Ġserver": 3849,
      "mock": 3850,
      "Ġwood": 3851,
      "Ġviol": 3852,
      "45": 3853,
      "ĠInternational": 3854,
      "vest": 3855,
      "ds": 3856,
      "Ġdemon": 3857,
      "ĠPres": 3858,
      "Ġprotection": 3859,
      "task": 3860,
      "eline": 3861,
      "delete": 3862,
      "IR": 3863,
      "wise": 3864,
      "Ġmor": 3865,
      "ĠPark": 3866,
      "iforn": 3867,
      "All": 3868,
      "ĠLeague": 3869,
      "Ġstat": 3870,
      "ĠDo": 3871,
      "options": 3872,
      "sor": 3873,
      "rage": 3874,
      "close": 3875,
      "Ġshown": 3876,
      "Ġvital": 3877,
      "75": 3878,
      "page": 3879,
      "Ġlooking": 3880,
      "Ġsqu": 3881,
      "Ġcross": 3882,
      "Ġrock": 3883,
      "Ġvisual": 3884,
      "Ġrisks": 3885,
      "Ġtechnologies": 3886,
      "Ġq": 3887,
      "TE": 3888,
      "Ġpref": 3889,
      "ĠĠĠĠĠĠĠĠĠĠ": 3890,
      "cles": 3891,
      "Ġstage": 3892,
      "cover": 3893,
      "ĠTechn": 3894,
      "ocket": 3895,
      "ding": 3896,
      "Ġsil": 3897,
      "Ġtherapy": 3898,
      "connect": 3899,
      "bin": 3900,
      "cil": 3901,
      "Ġgreater": 3902,
      "ĠChar": 3903,
      "ategory": 3904,
      "Ġarchitect": 3905,
      "'}),": 3906,
      "Ġobtain": 3907,
      "Ġborn": 3908,
      "Ġuseful": 3909,
      "Ġupon": 3910,
      "Ġmsg": 3911,
      "ieved": 3912,
      "inct": 3913,
      "Ġbalance": 3914,
      "ĠUse": 3915,
      "reen": 3916,
      "UN": 3917,
      "andom": 3918,
      "Ġcontribute": 3919,
      "Ġallowing": 3920,
      "ĠHer": 3921,
      "Ġexpect": 3922,
      "ĠAir": 3923,
      "ula": 3924,
      "ico": 3925,
      "ĠTrans": 3926,
      "Ġupdate": 3927,
      "26": 3928,
      "Ġfat": 3929,
      "cal": 3930,
      "Ġcard": 3931,
      "Ġdisplay": 3932,
      "ĠEuropean": 3933,
      "Ġmachine": 3934,
      "TT": 3935,
      "Ġyield": 3936,
      "Ġequipment": 3937,
      "ifornia": 3938,
      "ĠSer": 3939,
      "Ġbeaut": 3940,
      "Ġtakes": 3941,
      "orse": 3942,
      "Ġpatterns": 3943,
      "Ġdry": 3944,
      "useum": 3945,
      "Ġmilitary": 3946,
      "avig": 3947,
      "nderstanding": 3948,
      "At": 3949,
      "illing": 3950,
      "eger": 3951,
      "ĠIN": 3952,
      "Ġetc": 3953,
      "ĠAc": 3954,
      "Ġaverage": 3955,
      ")))": 3956,
      "enses": 3957,
      "{}": 3958,
      "Ġmanage": 3959,
      "alls": 3960,
      "Ġoutside": 3961,
      "Ġ40": 3962,
      "Ġsession": 3963,
      "ĠBo": 3964,
      "ederal": 3965,
      "Ġadminist": 3966,
      "token": 3967,
      "Ġreve": 3968,
      "Up": 3969,
      "eta": 3970,
      "Ġceleb": 3971,
      "Ġcontains": 3972,
      "Ġvers": 3973,
      "iers": 3974,
      "option": 3975,
      "Ġfem": 3976,
      "ceed": 3977,
      "uries": 3978,
      "ourney": 3979,
      "ĠFebruary": 3980,
      "Ġmatter": 3981,
      "Ġefforts": 3982,
      "uate": 3983,
      "reate": 3984,
      "aur": 3985,
      "ĠData": 3986,
      "Ġspeed": 3987,
      "Ġbehind": 3988,
      "ham": 3989,
      "clusion": 3990,
      "Ġadvant": 3991,
      "Ġdemonstr": 3992,
      "och": 3993,
      "abet": 3994,
      "Ġsold": 3995,
      "Ġtransl": 3996,
      "Ġdetermine": 3997,
      "ĠGerman": 3998,
      "Ad": 3999,
      "grad": 4000,
      "hel": 4001,
      "dec": 4002,
      "property": 4003,
      "ros": 4004,
      "Ġelement": 4005,
      "Ġimmed": 4006,
      "rical": 4007,
      "ĠHar": 4008,
      "Ġeasily": 4009,
      "Ġtasks": 4010,
      "Ġdiseases": 4011,
      "ifier": 4012,
      "ĠMy": 4013,
      "Ġquant": 4014,
      "ĠEl": 4015,
      "MS": 4016,
      "Ġmeasures": 4017,
      "Ġsave": 4018,
      "search": 4019,
      "Ġoperations": 4020,
      "aul": 4021,
      "Ġprivate": 4022,
      "reet": 4023,
      "gency": 4024,
      "tag": 4025,
      "ĠMc": 4026,
      "service": 4027,
      "enge": 4028,
      "ĠComp": 4029,
      "27": 4030,
      "onom": 4031,
      "Ġvolume": 4032,
      "Ġindic": 4033,
      "Ġbacter": 4034,
      "rupt": 4035,
      "uable": 4036,
      "Ġfilter": 4037,
      "Ġsouth": 4038,
      "Ġstru": 4039,
      "hol": 4040,
      "vis": 4041,
      "ees": 4042,
      "ĠĠĠĠĠĠĠĠĠĠĠĠĠĠ": 4043,
      "Tr": 4044,
      "Ġorganizations": 4045,
      "etimes": 4046,
      "Ġimages": 4047,
      "Col": 4048,
      "unk": 4049,
      "ias": 4050,
      "save": 4051,
      "Ġstorage": 4052,
      "Ġexisting": 4053,
      "ya": 4054,
      "ĠWork": 4055,
      "phas": 4056,
      "flict": 4057,
      "ĠMany": 4058,
      "Ġmis": 4059,
      "gorith": 4060,
      "copy": 4061,
      "Ġappropriate": 4062,
      "plot": 4063,
      "body": 4064,
      "Ġfast": 4065,
      "Ġhot": 4066,
      "conf": 4067,
      "ĠCalifornia": 4068,
      "Ġdrink": 4069,
      "ĠRev": 4070,
      "come": 4071,
      "Ġmom": 4072,
      "pace": 4073,
      "Ġclub": 4074,
      "ĠVal": 4075,
      "Ġalmost": 4076,
      "vention": 4077,
      "icine": 4078,
      "elligence": 4079,
      "Ġnight": 4080,
      "Ġwindow": 4081,
      "Ġgetting": 4082,
      "era": 4083,
      "Ġspirit": 4084,
      "inn": 4085,
      "Ġhttp": 4086,
      "ĠFirst": 4087,
      "ĠOff": 4088,
      "Ġsex": 4089,
      "Ġ2008": 4090,
      "uple": 4091,
      "ĠEarth": 4092,
      "Ġemotional": 4093,
      "gener": 4094,
      "entry": 4095,
      "Ġbasic": 4096,
      "network": 4097,
      "igr": 4098,
      "Ġwalk": 4099,
      "Ġsurround": 4100,
      "Ġbank": 4101,
      "Ġlandsc": 4102,
      "ipl": 4103,
      "ANT": 4104,
      "ildren": 4105,
      "essages": 4106,
      "Ġfost": 4107,
      "Ġign": 4108,
      "function": 4109,
      "atively": 4110,
      "Ġexercise": 4111,
      "Americ": 4112,
      "Ġobj": 4113,
      "irection": 4114,
      "Ġinside": 4115,
      "Ġnutri": 4116,
      "oke": 4117,
      "lor": 4118,
      "Model": 4119,
      "Ġbirths": 4120,
      "Ġnumbers": 4121,
      "Ġsolution": 4122,
      "ondon": 4123,
      "olar": 4124,
      "ech": 4125,
      "Ġlimited": 4126,
      "33": 4127,
      "Ġgenerally": 4128,
      "Ġcompared": 4129,
      "Ġreach": 4130,
      "Ġrich": 4131,
      "Ġord": 4132,
      "ĠCanada": 4133,
      "Ġproced": 4134,
      "ĠValue": 4135,
      "ĠCollege": 4136,
      "Ġagricult": 4137,
      "Ġsometimes": 4138,
      "********": 4139,
      "Ġcomprehens": 4140,
      "Par": 4141,
      "Ġsevere": 4142,
      "rought": 4143,
      "osure": 4144,
      "address": 4145,
      "ran": 4146,
      "Des": 4147,
      "NU": 4148,
      "Ġhighly": 4149,
      "Ġrequirements": 4150,
      "ĠResearch": 4151,
      "yond": 4152,
      "Ġdem": 4153,
      "Ġtell": 4154,
      "ancy": 4155,
      "Ġresponsible": 4156,
      "Che": 4157,
      "xiety": 4158,
      "Ġlayer": 4159,
      "No": 4160,
      "unch": 4161,
      "ĠAnt": 4162,
      "Ġpoll": 4163,
      "show": 4164,
      "Ġdistributed": 4165,
      "Ġcollection": 4166,
      "Ġmemory": 4167,
      "Ġpowerful": 4168,
      "riving": 4169,
      "Ġcontract": 4170,
      "Ġdou": 4171,
      "imize": 4172,
      "Ġveget": 4173,
      "var": 4174,
      "Ġremains": 4175,
      "Ġfront": 4176,
      "Ġeye": 4177,
      "*-": 4178,
      "Ġcentral": 4179,
      "Ġmonth": 4180,
      "lo": 4181,
      "SS": 4182,
      "apping": 4183,
      "Ġhabit": 4184,
      "Ġserious": 4185,
      "Ġofficial": 4186,
      "Ġserved": 4187,
      "Ġchoice": 4188,
      "Ġvit": 4189,
      "Ġdepend": 4190,
      "ĠEduc": 4191,
      "Ġsimply": 4192,
      "199": 4193,
      "Ġbeyond": 4194,
      "Ġforest": 4195,
      "ĠBlack": 4196,
      "Ser": 4197,
      "ĠFound": 4198,
      ".)": 4199,
      "Ġlarger": 4200,
      "Ġbehavi": 4201,
      "Ġfunctions": 4202,
      "ĠMore": 4203,
      "Ġdecisions": 4204,
      "zer": 4205,
      "Ġancient": 4206,
      "Ġpromote": 4207,
      "orders": 4208,
      "Ġdecre": 4209,
      "Ġreturned": 4210,
      "Ġassign": 4211,
      "Ġadjust": 4212,
      "settings": 4213,
      "ship": 4214,
      "AA": 4215,
      "ĠAfrica": 4216,
      "{'": 4217,
      "ocal": 4218,
      "Ġbur": 4219,
      "Ġorganization": 4220,
      "Ġmer": 4221,
      "Ġfriend": 4222,
      "Ġupd": 4223,
      "Ġdescribed": 4224,
      "command": 4225,
      "Ġdoing": 4226,
      "Ġvacc": 4227,
      "CON": 4228,
      "Ġrunning": 4229,
      "Se": 4230,
      "ugin": 4231,
      "Ġadvance": 4232,
      "Ġdifference": 4233,
      "ĠCour": 4234,
      "Ġones": 4235,
      "more": 4236,
      "Ġ2011": 4237,
      "ĠOther": 4238,
      "Ġwind": 4239,
      "Ġshap": 4240,
      "umb": 4241,
      "frame": 4242,
      "Ġbit": 4243,
      "xim": 4244,
      "cache": 4245,
      "Ġactions": 4246,
      "Ġtrees": 4247,
      "osition": 4248,
      "sol": 4249,
      "istor": 4250,
      "hent": 4251,
      "century": 4252,
      "Ġnorth": 4253,
      "pop": 4254,
      "Ġchoose": 4255,
      "Ġgraph": 4256,
      "stream": 4257,
      "ĠĠĠĠĠĠĠĠĠĠĠĠĠĠĠĠĠ": 4258,
      "roy": 4259,
      "Ġsus": 4260,
      "Ġassist": 4261,
      "Object": 4262,
      "Ġhol": 4263,
      "Ġincorpor": 4264,
      "Ġprogramm": 4265,
      "ESS": 4266,
      "Ġpick": 4267,
      "74": 4268,
      "Ġideas": 4269,
      "Ġmode": 4270,
      "ĠSystem": 4271,
      "patch": 4272,
      "Ġleaves": 4273,
      "Ġcivil": 4274,
      "ampionship": 4275,
      "ributes": 4276,
      "Ġlost": 4277,
      "template": 4278,
      "Ġjourney": 4279,
      "CE": 4280,
      "wo": 4281,
      "ĠList": 4282,
      "tenance": 4283,
      "ington": 4284,
      "Ġbecomes": 4285,
      "Ġnegative": 4286,
      "match": 4287,
      "ĠEngland": 4288,
      "essor": 4289,
      "Ġbusinesses": 4290,
      "Ġadvanced": 4291,
      ")]": 4292,
      "uge": 4293,
      "ii": 4294,
      "Ġrelease": 4295,
      "aign": 4296,
      "Ġsomeone": 4297,
      "And": 4298,
      "func": 4299,
      "Ġvict": 4300,
      "Ġreported": 4301,
      "ĠJew": 4302,
      "width": 4303,
      "ouncil": 4304,
      "Ġ##": 4305,
      "'re": 4306,
      "Ġexpand": 4307,
      "Ġscale": 4308,
      "pref": 4309,
      "ĠDav": 4310,
      "198": 4311,
      "Ġmap": 4312,
      "Ġanimal": 4313,
      "PI": 4314,
      "iot": 4315,
      "Ġband": 4316,
      "iber": 4317,
      "Fr": 4318,
      "Ġ'/": 4319,
      "porary": 4320,
      "ĠĠĠĠĠĠĠĠĠĠĠĠĠĠĠĠĠĠĠĠĠ": 4321,
      "Ġqual": 4322,
      "Ġcontroll": 4323,
      "Ġexplain": 4324,
      "ycl": 4325,
      "ĠLondon": 4326,
      "Ġbab": 4327,
      "Ġdang": 4328,
      "Ġsetting": 4329,
      "aker": 4330,
      "Ġtrust": 4331,
      "Ġmid": 4332,
      "Ġ21": 4333,
      "Ġmagn": 4334,
      "These": 4335,
      "Ġpurch": 4336,
      "Qu": 4337,
      "35": 4338,
      "aa": 4339,
      "Ġpoor": 4340,
      "umber": 4341,
      "mem": 4342,
      "Ġacad": 4343,
      "Ġparams": 4344,
      "Ġmother": 4345,
      "Ġhttps": 4346,
      "Ġdied": 4347,
      "Ġstore": 4348,
      "ĠAssoci": 4349,
      "Ġparser": 4350,
      "ĠDef": 4351,
      "Ġstation": 4352,
      "ensity": 4353,
      "Ġentry": 4354,
      "ouch": 4355,
      "Ġflu": 4356,
      "Ġaim": 4357,
      "Ġround": 4358,
      "TR": 4359,
      "Ġpurpose": 4360,
      "78": 4361,
      "Ġinvestig": 4362,
      "lier": 4363,
      "Ġemphas": 4364,
      "Ġteeth": 4365,
      "Ġvia": 4366,
      "icians": 4367,
      "Ġstandards": 4368,
      "step": 4369,
      "older": 4370,
      "ĠAustralia": 4371,
      "Ġlat": 4372,
      "isms": 4373,
      "Ġeat": 4374,
      "volume": 4375,
      "Ġmaintaining": 4376,
      "inese": 4377,
      "Ġseem": 4378,
      "aset": 4379,
      "ĠDistrict": 4380,
      "mode": 4381,
      "Ġfight": 4382,
      "ara": 4383,
      "odies": 4384,
      "Ġsequ": 4385,
      "cmd": 4386,
      "Ġwarm": 4387,
      "Ġ->": 4388,
      "Ġplays": 4389,
      "ATE": 4390,
      "icon": 4391,
      "Ġhandle": 4392,
      "evision": 4393,
      "ĠGet": 4394,
      "Inst": 4395,
      "Ġyourself": 4396,
      "Ġeducational": 4397,
      "mary": 4398,
      "ani": 4399,
      "Ġbooks": 4400,
      "umns": 4401,
      "ĠDevelop": 4402,
      "iable": 4403,
      "life": 4404,
      "ordin": 4405,
      "Ġbad": 4406,
      "Ġbound": 4407,
      "Ġ2012": 4408,
      "Ġten": 4409,
      "']['": 4410,
      "ĠOver": 4411,
      "Ġhistorical": 4412,
      "uster": 4413,
      "ĠĠĠĠĠĠĠĠĠĠĠĠĠĠĠĠĠĠĠĠĠĠĠĠĠ": 4414,
      "Ġdescription": 4415,
      "ĠCommun": 4416,
      "ĠSan": 4417,
      "Ġbirth": 4418,
      "Ġstri": 4419,
      "02": 4420,
      "Ġder": 4421,
      "Ġkwargs": 4422,
      "Ġcook": 4423,
      "Ġsigns": 4424,
      "Ġtransfer": 4425,
      "req": 4426,
      "ĠScience": 4427,
      "rab": 4428,
      "Ġmount": 4429,
      "aid": 4430,
      "Ġplaces": 4431,
      "66": 4432,
      "olicy": 4433,
      "ĠĠĠĠĠĠĠĠĠĠĠĠĠĠĠĠĠĠĠĠ": 4434,
      "zz": 4435,
      "EST": 4436,
      "where": 4437,
      "ĠDay": 4438,
      "Ġcurrently": 4439,
      "ube": 4440,
      "water": 4441,
      "IV": 4442,
      "Ġhous": 4443,
      "Ġcenter": 4444,
      "oper": 4445,
      "unt": 4446,
      "Ġ-*-": 4447,
      "Ġstream": 4448,
      "Ġang": 4449,
      "Ġconstruct": 4450,
      "Ġwest": 4451,
      "number": 4452,
      "but": 4453,
      "Ġmix": 4454,
      "American": 4455,
      "Ġhon": 4456,
      "ĠHol": 4457,
      "Ġguide": 4458,
      "Ġfloat": 4459,
      "Ġequal": 4460,
      "ming": 4461,
      "alt": 4462,
      "ĠDuring": 4463,
      "replace": 4464,
      "ĠAng": 4465,
      "Ġfamilies": 4466,
      "Ġthing": 4467,
      "Ġcit": 4468,
      "det": 4469,
      "ĠChurch": 4470,
      "idden": 4471,
      "Ġinstr": 4472,
      "Ġinterp": 4473,
      "urt": 4474,
      "ĠTheir": 4475,
      "Ġstrength": 4476,
      "Ã³": 4477,
      "Ġminutes": 4478,
      "Ġ2015": 4479,
      "craft": 4480,
      "Ġconstant": 4481,
      "Ġstrugg": 4482,
      "ĠRem": 4483,
      "IM": 4484,
      "Ġstructures": 4485,
      "fully": 4486,
      "reek": 4487,
      "Ġconcent": 4488,
      "04": 4489,
      "Ġmob": 4490,
      "ĠSet": 4491,
      "Ġallowed": 4492,
      "05": 4493,
      "Wid": 4494,
      "Ġnews": 4495,
      "uations": 4496,
      "Man": 4497,
      "sect": 4498,
      "mt": 4499,
      "Ġrules": 4500,
      "\"))": 4501,
      "has": 4502,
      "ĠOR": 4503,
      "bal": 4504,
      "Base": 4505,
      "Ġworkers": 4506,
      "String": 4507,
      "cr": 4508,
      "sign": 4509,
      "Ġreceive": 4510,
      "orthern": 4511,
      "Ġcop": 4512,
      "ĠReturns": 4513,
      "ĠCenter": 4514,
      "ĠEast": 4515,
      "Ġcomplet": 4516,
      "ĠAfrican": 4517,
      "strip": 4518,
      "Ġweather": 4519,
      "Ġdiverse": 4520,
      "FI": 4521,
      "Ġscientific": 4522,
      "Ġclin": 4523,
      "product": 4524,
      "Ġwent": 4525,
      "ĠPhil": 4526,
      "Ġdistrict": 4527,
      "Ġmo": 4528,
      "Ġdetect": 4529,
      "Ġrapid": 4530,
      "Ġson": 4531,
      "ĠHouse": 4532,
      "Config": 4533,
      "After": 4534,
      "Ġserve": 4535,
      "dep": 4536,
      "Ġpassed": 4537,
      "App": 4538,
      "omb": 4539,
      "email": 4540,
      "Ġcommer": 4541,
      "ĠLa": 4542,
      "eed": 4543,
      "ĠInstitute": 4544,
      "chang": 4545,
      "ĠGovern": 4546,
      "outhern": 4547,
      "34": 4548,
      "ialog": 4549,
      "cell": 4550,
      "rics": 4551,
      "Ġdark": 4552,
      "Ġreplace": 4553,
      "pped": 4554,
      "Ġ2014": 4555,
      "resource": 4556,
      "Ġded": 4557,
      "ĠAdditionally": 4558,
      "Pe": 4559,
      "uuid": 4560,
      "Ġrandom": 4561,
      "Ġ2020": 4562,
      "Ġprop": 4563,
      "ĠInter": 4564,
      "Ġiniti": 4565,
      "Ġcool": 4566,
      "Ġ2013": 4567,
      "Ġcapital": 4568,
      "Ġpet": 4569,
      "Reg": 4570,
      "semb": 4571,
      "rong": 4572,
      "Ġhumans": 4573,
      "Ġbox": 4574,
      "Ġbelieve": 4575,
      "Ġanxiety": 4576,
      "ĠRoman": 4577,
      "Ġteachers": 4578,
      "efore": 4579,
      "Ġbenefit": 4580,
      "Ġconflict": 4581,
      "ĠFin": 4582,
      "Ġpropos": 4583,
      "xml": 4584,
      "Ġanswer": 4585,
      "local": 4586,
      "ners": 4587,
      "Ġmale": 4588,
      "Ġvaluable": 4589,
      "]:": 4590,
      "elt": 4591,
      "ospital": 4592,
      "eli": 4593,
      "hether": 4594,
      "Ġevol": 4595,
      "uman": 4596,
      ":`": 4597,
      "Ġsituation": 4598,
      "Ġnavig": 4599,
      "ĠSch": 4600,
      "Case": 4601,
      "respon": 4602,
      "ĠConst": 4603,
      "Ġcomfort": 4604,
      "uses": 4605,
      "Ġfuel": 4606,
      "Ġteaching": 4607,
      "ĠLear": 4608,
      "ĠGr": 4609,
      "ĠAre": 4610,
      "âĢ¦": 4611,
      "Ġfather": 4612,
      "ĠMich": 4613,
      "Ġestim": 4614,
      "Ġraw": 4615,
      "From": 4616,
      "ĠSk": 4617,
      "Ġcapacity": 4618,
      "iples": 4619,
      "Ph": 4620,
      "oyal": 4621,
      "Ġ2016": 4622,
      "device": 4623,
      "Ġtiss": 4624,
      "ĠCor": 4625,
      "Ġrule": 4626,
      "Ġing": 4627,
      "Ġjoint": 4628,
      "Ġcore": 4629,
      "Ġexact": 4630,
      "ĠBra": 4631,
      "Ġtend": 4632,
      "Ġcommonly": 4633,
      "cls": 4634,
      "rated": 4635,
      "So": 4636,
      "house": 4637,
      "ĠKe": 4638,
      "Ġkids": 4639,
      "ios": 4640,
      "isl": 4641,
      "Ġlogger": 4642,
      "Ġoperation": 4643,
      "ĠUnion": 4644,
      "Ġdynam": 4645,
      "ensions": 4646,
      "Ġthinking": 4647,
      "Ġpresence": 4648,
      "Ġrates": 4649,
      "abetes": 4650,
      ");": 4651,
      "Ġapply": 4652,
      "'].": 4653,
      "foo": 4654,
      "Ġemail": 4655,
      "rogen": 4656,
      "Path": 4657,
      "Sc": 4658,
      "acing": 4659,
      "Log": 4660,
      "Ġchanged": 4661,
      "ĠUK": 4662,
      "Ġaspects": 4663,
      "arian": 4664,
      "Fil": 4665,
      "Ġtrade": 4666,
      "38": 4667,
      "ĠMex": 4668,
      "Ġdatetime": 4669,
      "wide": 4670,
      "FF": 4671,
      "ilk": 4672,
      "expected": 4673,
      "Ġthus": 4674,
      "Ġgot": 4675,
      "User": 4676,
      "~~": 4677,
      "Ġhands": 4678,
      "Ġmag": 4679,
      "ĠPal": 4680,
      "Ġhope": 4681,
      "iveness": 4682,
      "ĠPre": 4683,
      "CC": 4684,
      "Ġauth": 4685,
      "ĠAtt": 4686,
      "Ġfilename": 4687,
      "ĠDepartment": 4688,
      "Ġcand": 4689,
      "Ġcert": 4690,
      "Ġ),": 4691,
      "ĠLab": 4692,
      "description": 4693,
      "cher": 4694,
      "Ġdjango": 4695,
      "olec": 4696,
      "AM": 4697,
      "urb": 4698,
      "Ġplanning": 4699,
      "Ġclaim": 4700,
      "'},": 4701,
      "ĠIts": 4702,
      "Ġprocessing": 4703,
      "Ġoffic": 4704,
      "author": 4705,
      "ĠCheck": 4706,
      "ĠValueError": 4707,
      "Group": 4708,
      "idge": 4709,
      "PT": 4710,
      "Ġvary": 4711,
      "Ġalgorith": 4712,
      "Ġjud": 4713,
      "Ġattract": 4714,
      "PS": 4715,
      "Ġsea": 4716,
      "Ġ2007": 4717,
      "48": 4718,
      "[-": 4719,
      "lication": 4720,
      "Ġearth": 4721,
      "ander": 4722,
      "lection": 4723,
      "ided": 4724,
      "Ġrecommend": 4725,
      "Ġconsumption": 4726,
      "ifying": 4727,
      "cp": 4728,
      "atur": 4729,
      "clude": 4730,
      "De": 4731,
      "bose": 4732,
      "oday": 4733,
      "emy": 4734,
      "ĠPat": 4735,
      "ĠRepublic": 4736,
      "Ġnumerous": 4737,
      "opyright": 4738,
      ")),": 4739,
      "Item": 4740,
      "road": 4741,
      "Ġtrig": 4742,
      "Ġsugar": 4743,
      "Ġconcerns": 4744,
      "Ġcomprehensive": 4745,
      "Ġmoved": 4746,
      "Ġroom": 4747,
      "ports": 4748,
      "datetime": 4749,
      "hing": 4750,
      "Ġenviron": 4751,
      "Ġmaster": 4752,
      "Ġvillage": 4753,
      "fg": 4754,
      "Ġstaff": 4755,
      "68": 4756,
      "ĠDon": 4757,
      "send": 4758,
      "Ġ'%": 4759,
      "Ġactual": 4760,
      "ĠPort": 4761,
      "long": 4762,
      "unction": 4763,
      "Ġsmaller": 4764,
      "rote": 4765,
      "Ġpict": 4766,
      "Ġopportunity": 4767,
      "Ġnumpy": 4768,
      "ĠFrance": 4769,
      "Ġcarry": 4770,
      "Ġsoon": 4771,
      "Ġinfect": 4772,
      "ipe": 4773,
      "Ġtrend": 4774,
      "ĠIS": 4775,
      "Ġsports": 4776,
      "Ġexamples": 4777,
      "Exception": 4778,
      "Ġdim": 4779,
      "ĠSpec": 4780,
      "ĠGermany": 4781,
      "Ġforward": 4782,
      "aint": 4783,
      "ying": 4784,
      "Ġacid": 4785,
      "Ġscientists": 4786,
      "rees": 4787,
      "Ġdeaths": 4788,
      "à¥": 4789,
      "cean": 4790,
      "|-": 4791,
      "ĠOF": 4792,
      "chain": 4793,
      "Rec": 4794,
      "aled": 4795,
      "ester": 4796,
      "ĠVir": 4797,
      "ĠChinese": 4798,
      "Ġnote": 4799,
      "ado": 4800,
      "Ġcoll": 4801,
      "Ġacqu": 4802,
      "admin": 4803,
      "Ġnovel": 4804,
      "Ġbuildings": 4805,
      "std": 4806,
      "Ġparameters": 4807,
      "Ġexposure": 4808,
      "Ġburn": 4809,
      "Ġinsights": 4810,
      "Ġbeginning": 4811,
      "urance": 4812,
      "Ġeveryone": 4813,
      "Ġreduced": 4814,
      "Ġworked": 4815,
      "ĠBel": 4816,
      "CL": 4817,
      "Ġgenerate": 4818,
      "first": 4819,
      "Ġeating": 4820,
      "Ġprotein": 4821,
      "aste": 4822,
      "isation": 4823,
      "Ġconsequ": 4824,
      "Ġdoctor": 4825,
      "Ġcontinued": 4826,
      "ether": 4827,
      "Ġimmune": 4828,
      "Ġlib": 4829,
      "ĠException": 4830,
      "Ġcam": 4831,
      "position": 4832,
      "Ġns": 4833,
      "ĠMost": 4834,
      "acters": 4835,
      "ocr": 4836,
      "ersion": 4837,
      "Trans": 4838,
      "riend": 4839,
      "Ġlargest": 4840,
      "ĠSub": 4841,
      "Ġlabor": 4842,
      "Ġaffected": 4843,
      "Ġcolumn": 4844,
      "Ġexcess": 4845,
      "ĠFoundation": 4846,
      "ests": 4847,
      "').": 4848,
      "Ġflex": 4849,
      "69": 4850,
      "icode": 4851,
      "Ġisn": 4852,
      "08": 4853,
      "osystem": 4854,
      "Ġassum": 4855,
      "Ġboard": 4856,
      "strict": 4857,
      "pc": 4858,
      "ĠTO": 4859,
      "ĠAv": 4860,
      "Ġheight": 4861,
      "ĠDel": 4862,
      "ottom": 4863,
      "Ġemissions": 4864,
      "Ġinfo": 4865,
      "Ġperfect": 4866,
      "Ġfully": 4867,
      "Ġfeet": 4868,
      "hest": 4869,
      "Ġweeks": 4870,
      "Ġtour": 4871,
      "Ġdistribution": 4872,
      "wait": 4873,
      "Ġreasons": 4874,
      "Ġcommercial": 4875,
      "vari": 4876,
      "Att": 4877,
      "VID": 4878,
      "63": 4879,
      "sec": 4880,
      "Ġappoint": 4881,
      "Check": 4882,
      "Le": 4883,
      "Ġexpert": 4884,
      "rm": 4885,
      "Ġgold": 4886,
      "Ġinsp": 4887,
      "Ġneigh": 4888,
      "ario": 4889,
      "Ġexecut": 4890,
      "Ġsecure": 4891,
      "orge": 4892,
      "ought": 4893,
      "iar": 4894,
      "Ġbackground": 4895,
      "sys": 4896,
      "Ġrelationships": 4897,
      "inition": 4898,
      "ificial": 4899,
      "uit": 4900,
      "lies": 4901,
      "ecause": 4902,
      "Ġbreath": 4903,
      "Def": 4904,
      "Ġchallenge": 4905,
      "Ġeconomy": 4906,
      "ĠĠĠĠĠĠĠĠĠĠĠĠĠĠĠĠĠĠĠĠĠĠ": 4907,
      "Ġinfection": 4908,
      "ĠLaw": 4909,
      "Ġ23": 4910,
      "Ġtherefore": 4911,
      "static": 4912,
      "ĠEach": 4913,
      "77": 4914,
      "Ġprice": 4915,
      "Ġeasier": 4916,
      "Or": 4917,
      "Ġ22": 4918,
      "west": 4919,
      "Ġalthough": 4920,
      "Dict": 4921,
      "Ġtf": 4922,
      "nel": 4923,
      "ĠGroup": 4924,
      "Request": 4925,
      "estamp": 4926,
      "account": 4927,
      "Ġstories": 4928,
      "ategy": 4929,
      "View": 4930,
      "remove": 4931,
      "ognitive": 4932,
      "Ġtrain": 4933,
      "Ġbacteria": 4934,
      "Ġdegree": 4935,
      "Ġmask": 4936,
      "Info": 4937,
      "Ġsample": 4938,
      "Ġmill": 4939,
      "Ġeverything": 4940,
      "formation": 4941,
      "Ġshared": 4942,
      "pty": 4943,
      "55": 4944,
      "Ġ[\"": 4945,
      "CharField": 4946,
      "unit": 4947,
      "New": 4948,
      "iding": 4949,
      "sche": 4950,
      "Ġmention": 4951,
      "Ġtag": 4952,
      "iring": 4953,
      "Ġrecords": 4954,
      "ĠChristian": 4955,
      "Ġ60": 4956,
      "Ġ2017": 4957,
      "bb": 4958,
      "ida": 4959,
      "hy": 4960,
      "ĠAg": 4961,
      "Ġdirectory": 4962,
      "Ġanti": 4963,
      "Ġpow": 4964,
      "train": 4965,
      "dist": 4966,
      "TO": 4967,
      "Ġdead": 4968,
      "Ġcontinues": 4969,
      "allow": 4970,
      "Ġfollowed": 4971,
      "etch": 4972,
      "adian": 4973,
      "Ġinfrast": 4974,
      "Ġsurg": 4975,
      "ingu": 4976,
      "Ġpark": 4977,
      "Ġwhose": 4978,
      "Ġmaintenance": 4979,
      "Sub": 4980,
      "Ġdefined": 4981,
      "pha": 4982,
      "ij": 4983,
      "align": 4984,
      "Ġdeal": 4985,
      "ximately": 4986,
      "job": 4987,
      "Ġdir": 4988,
      "Ġplastic": 4989,
      "Ġrise": 4990,
      "password": 4991,
      "Ġrot": 4992,
      "Ġdatabase": 4993,
      "cohol": 4994,
      "Ġfresh": 4995,
      "estic": 4996,
      "Ġdepending": 4997,
      "rum": 4998,
      "Ġcompleted": 4999,
      "Ġperspect": 5000,
      "rive": 5001,
      "ĠMark": 5002,
      "usion": 5003,
      "ĠWater": 5004,
      "elines": 5005,
      "Ġstarting": 5006,
      "Ġscen": 5007,
      "Ġ2018": 5008,
      "Ġcorn": 5009,
      "Ġplaying": 5010,
      "Ġhelping": 5011,
      "ares": 5012,
      "Ġgarden": 5013,
      "Ġbecoming": 5014,
      "ialize": 5015,
      "Ġconsult": 5016,
      "Can": 5017,
      "fit": 5018,
      "Ġurban": 5019,
      "Ġsav": 5020,
      "assertTrue": 5021,
      "EL": 5022,
      "overy": 5023,
      "anish": 5024,
      "apter": 5025,
      "eal": 5026,
      "Ġspecified": 5027,
      "txt": 5028,
      "Ġjournal": 5029,
      "Ġcolon": 5030,
      "Ġenter": 5031,
      "Ġregions": 5032,
      "win": 5033,
      "ĠDiv": 5034,
      "Ġswe": 5035,
      "Ġpolicies": 5036,
      "Return": 5037,
      "\"],": 5038,
      "power": 5039,
      "Ġrain": 5040,
      "abs": 5041,
      "oma": 5042,
      "ĠAccording": 5043,
      "pk": 5044,
      "ulner": 5045,
      "weight": 5046,
      "ald": 5047,
      "Ġsummer": 5048,
      "OS": 5049,
      "Ġexception": 5050,
      "Ġsaw": 5051,
      "Ġplans": 5052,
      "equ": 5053,
      "Ġintelligence": 5054,
      "ĠOur": 5055,
      "Ġannoun": 5056,
      "Ġsend": 5057,
      "river": 5058,
      "Ġ2019": 5059,
      "stack": 5060,
      "Ġchurch": 5061,
      "ĠEducation": 5062,
      "Ġplaced": 5063,
      "44": 5064,
      "Ġcmd": 5065,
      "Ġcold": 5066,
      "Ġbrought": 5067,
      "only": 5068,
      "Ġenvironments": 5069,
      "Ġ28": 5070,
      "ĠJes": 5071,
      "Ġmetal": 5072,
      "ooth": 5073,
      "Ġforces": 5074,
      "Ġ...": 5075,
      "Ġdistance": 5076,
      "Ġimag": 5077,
      "Ġsmart": 5078,
      "Ġeyes": 5079,
      "ĠMor": 5080,
      "metadata": 5081,
      "Ġmonitoring": 5082,
      "Ġadults": 5083,
      "Ġreligious": 5084,
      "ician": 5085,
      "Ġhair": 5086,
      "Ġblue": 5087,
      "Ġinternal": 5088,
      "dule": 5089,
      "Ġimproved": 5090,
      "aises": 5091,
      "ĠÂ": 5092,
      "Date": 5093,
      "ota": 5094,
      "ĠGNU": 5095,
      "Ġindustrial": 5096,
      "Ġstar": 5097,
      "ĠWash": 5098,
      "Ġresistance": 5099,
      "estyle": 5100,
      "mask": 5101,
      "bert": 5102,
      "race": 5103,
      "mitted": 5104,
      "going": 5105,
      "Ġlandscape": 5106,
      "Dis": 5107,
      "Ġdirection": 5108,
      "ishing": 5109,
      "rang": 5110,
      "Ġeffort": 5111,
      "Ġscreen": 5112,
      "header": 5113,
      "Ġapplied": 5114,
      "Ġdtype": 5115,
      "Ġoffice": 5116,
      "ĠPresident": 5117,
      "Ã¼": 5118,
      "Ġnation": 5119,
      "Ġsyn": 5120,
      "ibly": 5121,
      "see": 5122,
      "aught": 5123,
      "aming": 5124,
      "prefix": 5125,
      "Ġteams": 5126,
      "except": 5127,
      "Ġleave": 5128,
      "Ġmoment": 5129,
      "Ġfriends": 5130,
      "\">": 5131,
      "Hand": 5132,
      "II": 5133,
      "inder": 5134,
      "Ġoffering": 5135,
      "ĠLet": 5136,
      "left": 5137,
      "ĠGreat": 5138,
      "Ġtheory": 5139,
      "ĠRel": 5140,
      "Ġquite": 5141,
      "lower": 5142,
      "Ġunits": 5143,
      "Ġinfrastructure": 5144,
      "Ġ2000": 5145,
      "Ġthous": 5146,
      "erved": 5147,
      "Ġawareness": 5148,
      "ĠAssociation": 5149,
      "Ġinvolve": 5150,
      "iful": 5151,
      "Ġmuscle": 5152,
      "Ġtail": 5153,
      "igen": 5154,
      "Ġecosystem": 5155,
      "Ġimproving": 5156,
      "Ġgives": 5157,
      "Ġsupported": 5158,
      "ĠAlthough": 5159,
      "EX": 5160,
      "rew": 5161,
      "encing": 5162,
      "esc": 5163,
      "Ġmath": 5164,
      "Ġvision": 5165,
      "scale": 5166,
      "ĠProv": 5167,
      "ĠBr": 5168,
      "Response": 5169,
      "sm": 5170,
      "Ġcitiz": 5171,
      "Ġcreation": 5172,
      "ĠProf": 5173,
      "PL": 5174,
      "ourse": 5175,
      "67": 5176,
      "Ġ''": 5177,
      "Ġcampaign": 5178,
      "eper": 5179,
      "igration": 5180,
      "Ġerrors": 5181,
      "Ġolder": 5182,
      "vm": 5183,
      "ĠAp": 5184,
      "oul": 5185,
      "Ġcomponent": 5186,
      "Ġresulting": 5187,
      "ford": 5188,
      "err": 5189,
      "python": 5190,
      "Ġchoices": 5191,
      "Ġfear": 5192,
      "Ġinflamm": 5193,
      "Ġnutr": 5194,
      "Ġ2006": 5195,
      "Ġconnected": 5196,
      "rows": 5197,
      "icks": 5198,
      "Ġalternative": 5199,
      "ĠCath": 5200,
      "ĠRead": 5201,
      "Ġcharacters": 5202,
      "next": 5203,
      "Ġfactor": 5204,
      "Ġpen": 5205,
      "61": 5206,
      "akers": 5207,
      "Ġprobably": 5208,
      "ĠJust": 5209,
      "Ġformed": 5210,
      "Ġexhib": 5211,
      "Ġmanufacturing": 5212,
      "Out": 5213,
      "Ġball": 5214,
      "Ġperformed": 5215,
      "Ġhighlight": 5216,
      "argument": 5217,
      "Ġdistinct": 5218,
      "ĠCouncil": 5219,
      "gment": 5220,
      "rich": 5221,
      "pute": 5222,
      "ĠAut": 5223,
      "Ġresil": 5224,
      "ĠTem": 5225,
      "FC": 5226,
      "Ġcast": 5227,
      "ĠAlex": 5228,
      "ĠMal": 5229,
      "ĠOut": 5230,
      "Ġideal": 5231,
      "Ġinstit": 5232,
      "Ġcycle": 5233,
      "Ġidentity": 5234,
      "itis": 5235,
      "ĠIsra": 5236,
      "Ġdogs": 5237,
      "ĠKey": 5238,
      "ĠBen": 5239,
      "People": 5240,
      "Ġwrote": 5241,
      "ifications": 5242,
      "ĠSy": 5243,
      "Ġacademic": 5244,
      "Ġensures": 5245,
      "Ġcharg": 5246,
      "ĠCON": 5247,
      "('/": 5248,
      "Ġabsor": 5249,
      "gram": 5250,
      "]]": 5251,
      "store": 5252,
      "Ġcoding": 5253,
      "ĠChampionship": 5254,
      "udd": 5255,
      "Ġglass": 5256,
      "Class": 5257,
      "ping": 5258,
      "Ġrare": 5259,
      "Ġprofessionals": 5260,
      "Ġsites": 5261,
      "mar": 5262,
      "Ġpractical": 5263,
      "td": 5264,
      "Ġrecommended": 5265,
      "Ġ2021": 5266,
      "Ġdrive": 5267,
      "Ġselected": 5268,
      "TY": 5269,
      "73": 5270,
      "Ġbasis": 5271,
      "Ġmanufacture": 5272,
      "ĠHistory": 5273,
      "Some": 5274,
      "Ġrepe": 5275,
      "Ġoccup": 5276,
      "Ġgoes": 5277,
      "idx": 5278,
      "urrent": 5279,
      "Ġbattery": 5280,
      "Ġden": 5281,
      "Ġepis": 5282,
      "ĠID": 5283,
      "hetic": 5284,
      "Ġmissing": 5285,
      "Ġfa": 5286,
      "Ġstra": 5287,
      "ĠCopyright": 5288,
      "Ġdiabetes": 5289,
      "greg": 5290,
      "Read": 5291,
      "ifically": 5292,
      "Ġlaws": 5293,
      "aks": 5294,
      "Many": 5295,
      "fn": 5296,
      "umps": 5297,
      "Ġoptim": 5298,
      "Ġscript": 5299,
      "Ġstrategy": 5300,
      "missions": 5301,
      "Ġbirds": 5302,
      "ĠArch": 5303,
      "parser": 5304,
      "Ġoutcomes": 5305,
      "Ġclasses": 5306,
      "ĠSl": 5307,
      "95": 5308,
      "eding": 5309,
      "Ġpassword": 5310,
      "Ġsem": 5311,
      "BC": 5312,
      "ĠQue": 5313,
      "ĠWestern": 5314,
      "Ġtopic": 5315,
      "Ġsignal": 5316,
      "Ġtooth": 5317,
      "faces": 5318,
      "ĠSim": 5319,
      "urity": 5320,
      "ĠFore": 5321,
      "Ġfert": 5322,
      "oses": 5323,
      "ums": 5324,
      "Ġrelevant": 5325,
      "Ġstim": 5326,
      "Ġfacilit": 5327,
      "Ġinterpret": 5328,
      "Ġchain": 5329,
      "Gener": 5330,
      "Ġsort": 5331,
      "make": 5332,
      "blank": 5333,
      "Ġthread": 5334,
      "Ġ'.": 5335,
      "anguages": 5336,
      "Ġinvestment": 5337,
      "Ġnorm": 5338,
      "rim": 5339,
      "History": 5340,
      "Ġapproximately": 5341,
      "Ġgeneration": 5342,
      "Ġmoving": 5343,
      "ĠPython": 5344,
      "mosp": 5345,
      "Ġriver": 5346,
      "Ġreference": 5347,
      "Val": 5348,
      "Ġdifferences": 5349,
      "lymp": 5350,
      "Ġpeace": 5351,
      "ĠMain": 5352,
      "Ġoccurs": 5353,
      "Ġinstruct": 5354,
      "Ġhimself": 5355,
      "Ġproperly": 5356,
      "ĠĠĠĠĠĠĠĠĠĠĠĠĠĠĠĠĠĠĠĠĠĠĠĠĠĠĠĠĠĠĠĠĠĠĠ": 5357,
      "Ġcounter": 5358,
      "Ġrevolution": 5359,
      "orial": 5360,
      "Ġtelevision": 5361,
      "ups": 5362,
      "ocation": 5363,
      "normal": 5364,
      "ĠMod": 5365,
      "Ġmiddle": 5366,
      "null": 5367,
      "Ġnotice": 5368,
      "random": 5369,
      "Fl": 5370,
      "Ġframework": 5371,
      "Ġgiving": 5372,
      "Ġconver": 5373,
      "Ġtru": 5374,
      "Ġbul": 5375,
      "Ġvulner": 5376,
      "VER": 5377,
      "Ðµ": 5378,
      "Ġcontaining": 5379,
      "Ġengineering": 5380,
      "Ġdivers": 5381,
      "Ġprinciples": 5382,
      "ĠRef": 5383,
      "Ġcoast": 5384,
      "Ġbaby": 5385,
      "ffer": 5386,
      "Ġexcell": 5387,
      "Ġrespond": 5388,
      "Aut": 5389,
      "Ġcombination": 5390,
      "88": 5391,
      "KE": 5392,
      "Ġtouch": 5393,
      "https": 5394,
      "Ġremember": 5395,
      "stop": 5396,
      "Ġsch": 5397,
      "Ġcities": 5398,
      "Ġtemperatures": 5399,
      "Ġnative": 5400,
      "ulating": 5401,
      "PR": 5402,
      "Ġ{\"": 5403,
      "Lay": 5404,
      "omas": 5405,
      "Ġ27": 5406,
      "Ġbra": 5407,
      "Ġmit": 5408,
      "Ġscore": 5409,
      "ĠMary": 5410,
      "meta": 5411,
      "ITY": 5412,
      "ffic": 5413,
      "Ġrenew": 5414,
      "Ġtemplate": 5415,
      "ĠInc": 5416,
      "Ġrace": 5417,
      "domain": 5418,
      "look": 5419,
      "Widget": 5420,
      "Ġparty": 5421,
      "ĠPaul": 5422,
      "ĠArmy": 5423,
      "amily": 5424,
      "ĠĠĠĠĠĠĠĠĠĠĠĠĠĠĠĠĠĠĠĠĠĠĠĠĠĠ": 5425,
      "Ġdu": 5426,
      "Ġchart": 5427,
      "pport": 5428,
      "ĠWeb": 5429,
      "Ġreality": 5430,
      "essions": 5431,
      "Ġvehicle": 5432,
      "Ġelimin": 5433,
      "Ġspect": 5434,
      "eted": 5435,
      "ĠSocial": 5436,
      "words": 5437,
      "Ġsector": 5438,
      "TH": 5439,
      "exists": 5440,
      "ael": 5441,
      "hi": 5442,
      "unicip": 5443,
      "location": 5444,
      "gin": 5445,
      "udget": 5446,
      "Ġmoist": 5447,
      "Ġchannel": 5448,
      "anks": 5449,
      "Ġfailed": 5450,
      "Ġdrug": 5451,
      "Ġcloud": 5452,
      "ously": 5453,
      "Size": 5454,
      "ano": 5455,
      "ĠWashington": 5456,
      "ĠEnvironment": 5457,
      "Ġgir": 5458,
      "Ġchanging": 5459,
      "iny": 5460,
      "\\\\": 5461,
      "ĠClass": 5462,
      "Ġtips": 5463,
      "Ġbelief": 5464,
      "ĠSur": 5465,
      "Ġelectrical": 5466,
      "Ġtrying": 5467,
      "Ġago": 5468,
      "nodes": 5469,
      "Ġrat": 5470,
      "select": 5471,
      "Ġfederal": 5472,
      "Ġdf": 5473,
      "ĠAlso": 5474,
      "center": 5475,
      "âĢĿ.": 5476,
      "oving": 5477,
      "ĠOb": 5478,
      "Ġenable": 5479,
      "edia": 5480,
      "Ġheader": 5481,
      "Ġillness": 5482,
      "Ġnet": 5483,
      "amil": 5484,
      "Ġheavy": 5485,
      "State": 5486,
      "]['": 5487,
      "Ġvirtual": 5488,
      "ĠRussian": 5489,
      "Ġcourt": 5490,
      "gu": 5491,
      ")):": 5492,
      "script": 5493,
      "Ġcomment": 5494,
      "06": 5495,
      "Ġmouth": 5496,
      "ĠJames": 5497,
      "ĠDavid": 5498,
      "cel": 5499,
      "iat": 5500,
      "undred": 5501,
      "Ġeight": 5502,
      "Ġcausing": 5503,
      "PA": 5504,
      "ka": 5505,
      "site": 5506,
      "Ġwinter": 5507,
      "dim": 5508,
      "Su": 5509,
      "Ġdigest": 5510,
      "Ġfailure": 5511,
      "alian": 5512,
      "79": 5513,
      "Ġ2005": 5514,
      "ĠCong": 5515,
      "mail": 5516,
      "ienced": 5517,
      "Ġaccurate": 5518,
      "rency": 5519,
      "Ġcompletely": 5520,
      "Ġinformed": 5521,
      "Ġplanet": 5522,
      "Ġreturns": 5523,
      "ĠÐ": 5524,
      "ULT": 5525,
      "execute": 5526,
      "ĠDirect": 5527,
      "SD": 5528,
      "Ġconv": 5529,
      "ĠOf": 5530,
      "Ġexternal": 5531,
      "ĠCourt": 5532,
      "ĠPeople": 5533,
      "ĠImp": 5534,
      "Ġphil": 5535,
      "nergy": 5536,
      "Ġalone": 5537,
      "ĠWilliam": 5538,
      "Ġnuc": 5539,
      "bed": 5540,
      "Ġwidely": 5541,
      "Ġindustries": 5542,
      "]))": 5543,
      "Ġanything": 5544,
      "iately": 5545,
      "ipped": 5546,
      "la": 5547,
      "zing": 5548,
      "09": 5549,
      "Ġmission": 5550,
      "Ġmolec": 5551,
      "ĠOpen": 5552,
      "OL": 5553,
      "Ġpregn": 5554,
      "Ġintroduced": 5555,
      "Ġtoken": 5556,
      "sel": 5557,
      "Ġsignificance": 5558,
      "Ġelectricity": 5559,
      "Ġboost": 5560,
      "Ed": 5561,
      "Ġnutrients": 5562,
      "pool": 5563,
      "Over": 5564,
      "ĠType": 5565,
      "Ġfair": 5566,
      "rief": 5567,
      "tk": 5568,
      "Ġemployees": 5569,
      "Ġ26": 5570,
      "Ġwor": 5571,
      "TER": 5572,
      "Ġcontinuous": 5573,
      "tee": 5574,
      "friend": 5575,
      "atically": 5576,
      "NAME": 5577,
      "lant": 5578,
      "Ġrecorded": 5579,
      "Ġpotentially": 5580,
      "ĠHel": 5581,
      "39": 5582,
      "ĠGreen": 5583,
      "Ġhorm": 5584,
      "Ġhighest": 5585,
      "eria": 5586,
      "Ġsuitable": 5587,
      "Ġprefer": 5588,
      "points": 5589,
      "ophy": 5590,
      "band": 5591,
      "Ġvehicles": 5592,
      "ĠJapanese": 5593,
      "Ġpiece": 5594,
      "Ġprepar": 5595,
      "Ġtoward": 5596,
      "Ġchallenging": 5597,
      "Ġbond": 5598,
      "ĠĠĠĠĠĠĠĠĠĠĠĠĠĠĠĠĠĠĠĠĠĠĠĠĠĠĠĠĠ": 5599,
      "Ġearlier": 5600,
      "Ġincreases": 5601,
      "Ġpython": 5602,
      "Living": 5603,
      "ĠDi": 5604,
      "timately": 5605,
      "inated": 5606,
      "Ġglob": 5607,
      "ĠPress": 5608,
      "Ġencourag": 5609,
      "gent": 5610,
      "ĠTex": 5611,
      "Ġremote": 5612,
      "Ġaxis": 5613,
      "ART": 5614,
      "axis": 5615,
      "ĠMet": 5616,
      "atin": 5617,
      "Ġfrequently": 5618,
      "dest": 5619,
      "Ġfemale": 5620,
      "oto": 5621,
      "wood": 5622,
      "Ġincome": 5623,
      "ĠBer": 5624,
      "Ġbelong": 5625,
      "Ġcharacteristics": 5626,
      "ĠSoftware": 5627,
      "Ġpip": 5628,
      "Ġcollabor": 5629,
      "free": 5630,
      "Ġeventually": 5631,
      "Ġdomain": 5632,
      "ĠWhether": 5633,
      "username": 5634,
      "TestCase": 5635,
      "ĠTur": 5636,
      "Ġteacher": 5637,
      "pload": 5638,
      "Ġimpacts": 5639,
      "ĠSociety": 5640,
      "ĠMount": 5641,
      "Ġalcohol": 5642,
      "ĠÃ": 5643,
      "49": 5644,
      "Ġregulations": 5645,
      "nings": 5646,
      "Ġnearly": 5647,
      "ĠSen": 5648,
      "inding": 5649,
      "36": 5650,
      "ris": 5651,
      "However": 5652,
      "itage": 5653,
      "rops": 5654,
      "MO": 5655,
      "Ġleaders": 5656,
      "rome": 5657,
      "roid": 5658,
      "Ġworth": 5659,
      "Ġopened": 5660,
      "ĠAD": 5661,
      "Ġremoved": 5662,
      "thlet": 5663,
      "inger": 5664,
      "urs": 5665,
      "Ġmanaging": 5666,
      "common": 5667,
      "ava": 5668,
      "bas": 5669,
      "ĠMake": 5670,
      "Node": 5671,
      "Ġfruit": 5672,
      "ĠANY": 5673,
      "Ġpand": 5674,
      "Ġbodies": 5675,
      "src": 5676,
      "Ġcorrespon": 5677,
      "Ġaward": 5678,
      "olean": 5679,
      "ĠJesus": 5680,
      "ned": 5681,
      "RL": 5682,
      "Ġhomes": 5683,
      "called": 5684,
      "Ġhit": 5685,
      "ste": 5686,
      "uated": 5687,
      "ĠWAR": 5688,
      "ĠTra": 5689,
      "72": 5690,
      "ionary": 5691,
      "ĠColum": 5692,
      "CD": 5693,
      "\"):": 5694,
      "haps": 5695,
      "BA": 5696,
      "Ġbed": 5697,
      "Ġmal": 5698,
      "Frame": 5699,
      "Ġsituations": 5700,
      "Ġgenetic": 5701,
      "Ġexpression": 5702,
      "Ġsett": 5703,
      "ĠĠĠĠĠĠĠĠĠĠĠĠĠĠĠĠĠĠĠĠĠĠĠĠĠĠĠĠ": 5704,
      "aters": 5705,
      "31": 5706,
      "Ġinh": 5707,
      "Ġrecovery": 5708,
      "logger": 5709,
      "Ġinnovation": 5710,
      "Ġmut": 5711,
      "TTP": 5712,
      "oom": 5713,
      "gal": 5714,
      "Ġ>=": 5715,
      "Ġappearance": 5716,
      "Ġdental": 5717,
      "URL": 5718,
      "Ġcoming": 5719,
      "Ġmotor": 5720,
      "ective": 5721,
      "FT": 5722,
      "Ġcolors": 5723,
      "ĠCup": 5724,
      "ago": 5725,
      "ĠFil": 5726,
      "ria": 5727,
      "ĠDevelopment": 5728,
      "Index": 5729,
      "Ġplot": 5730,
      "Ġfigure": 5731,
      "assertR": 5732,
      "Ġinstitutions": 5733,
      "track": 5734,
      "Ġextract": 5735,
      "Ġ\"%": 5736,
      "ĠDem": 5737,
      "za": 5738,
      "anned": 5739,
      "'''": 5740,
      "enced": 5741,
      "access": 5742,
      "Ġconservation": 5743,
      "Ġengage": 5744,
      "mult": 5745,
      "Ġpromoting": 5746,
      "section": 5747,
      "Ġconvers": 5748,
      "real": 5749,
      "Ġice": 5750,
      "Ġspiritual": 5751,
      "ĠSince": 5752,
      "Ġcognitive": 5753,
      "reedom": 5754,
      "Ġindependent": 5755,
      "gest": 5756,
      "Ġinsect": 5757,
      "Ġargument": 5758,
      "ĠFree": 5759,
      "Ġready": 5760,
      "Eng": 5761,
      "ĠRobert": 5762,
      "esh": 5763,
      "Box": 5764,
      "aud": 5765,
      "Ġrestrict": 5766,
      "Ġtreatments": 5767,
      "Ġdestroy": 5768,
      "amental": 5769,
      "Ġincreasingly": 5770,
      "Ġweak": 5771,
      "utf": 5772,
      "Ġidentified": 5773,
      "Ġdepression": 5774,
      "riven": 5775,
      "Ġfavor": 5776,
      "ĠNow": 5777,
      "07": 5778,
      "ĠBook": 5779,
      "manager": 5780,
      "Ġdivid": 5781,
      "Ġusage": 5782,
      "ture": 5783,
      "Ġgenerated": 5784,
      "Ġregularly": 5785,
      "game": 5786,
      "language": 5787,
      "Ġleads": 5788,
      "hemat": 5789,
      "entials": 5790,
      "Ġtox": 5791,
      "Ġ()": 5792,
      "total": 5793,
      "Ġdisorders": 5794,
      "ĠSum": 5795,
      "Ġradio": 5796,
      "Ġsoft": 5797,
      "raint": 5798,
      "crete": 5799,
      "=(": 5800,
      "Ġmedicine": 5801,
      "ĠProt": 5802,
      "Ġwatch": 5803,
      "vals": 5804,
      "Ġdirector": 5805,
      "Ġteach": 5806,
      "Ġillust": 5807,
      "Ġast": 5808,
      "CA": 5809,
      "Ġelev": 5810,
      "Ġsolid": 5811,
      "poses": 5812,
      "orig": 5813,
      "direct": 5814,
      "Ġsynt": 5815,
      "lications": 5816,
      "Ġsoci": 5817,
      "system": 5818,
      "duction": 5819,
      "raction": 5820,
      "graph": 5821,
      "Ġarguments": 5822,
      "Ġatmosp": 5823,
      "ĠEven": 5824,
      "Ġpreviously": 5825,
      "column": 5826,
      "hash": 5827,
      "Ġregist": 5828,
      "arter": 5829,
      "ĠMuseum": 5830,
      "Ġwoman": 5831,
      "Ġdriving": 5832,
      "Ġgave": 5833,
      "rd": 5834,
      "Ġ2022": 5835,
      "ĠRich": 5836,
      "Ġvariable": 5837,
      "Ġcredit": 5838,
      "rian": 5839,
      "Ġseven": 5840,
      "Ġrecycl": 5841,
      "Ġimmediately": 5842,
      "Mod": 5843,
      "Ġexperienced": 5844,
      "tery": 5845,
      "Ġrail": 5846,
      "organ": 5847,
      "istan": 5848,
      "ĠMart": 5849,
      "xid": 5850,
      "Ġartists": 5851,
      "Ġesc": 5852,
      "ĠCOVID": 5853,
      "ini": 5854,
      "Ġking": 5855,
      "Ġhyp": 5856,
      "ĠConf": 5857,
      "idents": 5858,
      "she": 5859,
      "cat": 5860,
      "van": 5861,
      "Spec": 5862,
      "AI": 5863,
      "assertRaises": 5864,
      "Ġcompar": 5865,
      "Ġinjury": 5866,
      "Ġnetworks": 5867,
      "Ġplatforms": 5868,
      "oriz": 5869,
      "resents": 5870,
      "enty": 5871,
      "Ġrefers": 5872,
      "ootball": 5873,
      "ville": 5874,
      "Ġencourage": 5875,
      "comple": 5876,
      "results": 5877,
      "UP": 5878,
      "Ġvoc": 5879,
      "Ġjoined": 5880,
      "ĠThrough": 5881,
      "asion": 5882,
      "ĠGeorge": 5883,
      "gypt": 5884,
      "true": 5885,
      "Ġmotiv": 5886,
      "Ġnothing": 5887,
      "Ġseems": 5888,
      "Ġconcepts": 5889,
      "Ġpal": 5890,
      "Ġorganic": 5891,
      "Ġtechnique": 5892,
      "37": 5893,
      "Ġlinked": 5894,
      "Ġbelieved": 5895,
      "Ġ'\\": 5896,
      "Ġvirus": 5897,
      "ĠService": 5898,
      "clusive": 5899,
      "ĠOrgan": 5900,
      "Ġseparate": 5901,
      "ny": 5902,
      "ĠAcad": 5903,
      "(*": 5904,
      "sembly": 5905,
      "ĠSal": 5906,
      "afe": 5907,
      "Ġ..": 5908,
      "xygen": 5909,
      "Ġ%(": 5910,
      "Ġprompt": 5911,
      "ĠElect": 5912,
      "']:": 5913,
      "ca": 5914,
      "Te": 5915,
      "Ġconfiguration": 5916,
      "Ġerr": 5917,
      "Ġtechnical": 5918,
      "Ġregarding": 5919,
      "Ġchronic": 5920,
      "Ġlambda": 5921,
      "arp": 5922,
      "Ġchance": 5923,
      ".\")": 5924,
      "ocks": 5925,
      "Ġprimarily": 5926,
      "ĠQt": 5927,
      "aughter": 5928,
      "covery": 5929,
      "ĠCatholic": 5930,
      "char": 5931,
      "Ġsen": 5932,
      "Ã¶": 5933,
      "Ġforeign": 5934,
      "Inter": 5935,
      "iant": 5936,
      "Ġfix": 5937,
      "berg": 5938,
      "ĠUp": 5939,
      "rier": 5940,
      "Ġfill": 5941,
      "Ġhundred": 5942,
      "ĠThen": 5943,
      "case": 5944,
      "ĠMac": 5945,
      "ĠLeg": 5946,
      "ibilities": 5947,
      "tf": 5948,
      "Ġdownload": 5949,
      "Ġ2004": 5950,
      "ĠTHE": 5951,
      "Ġasked": 5952,
      "den": 5953,
      "Ġminor": 5954,
      "Ġbeneficial": 5955,
      "Ġcyber": 5956,
      "Be": 5957,
      "Ġspot": 5958,
      "pol": 5959,
      "Ġliqu": 5960,
      "rence": 5961,
      "Why": 5962,
      "ĠIsland": 5963,
      "Ġ29": 5964,
      "pred": 5965,
      "lambda": 5966,
      "Ġemotions": 5967,
      "Ġbillion": 5968,
      "connection": 5969,
      "Ġinfections": 5970,
      "Ġcollege": 5971,
      "ĠStreet": 5972,
      "pi": 5973,
      "Ġmajority": 5974,
      "security": 5975,
      "imple": 5976,
      "Ġseeds": 5977,
      "Ġmessages": 5978,
      "ora": 5979,
      "ĠEngine": 5980,
      "Ġadding": 5981,
      "Ġrecently": 5982,
      "ĠHistor": 5983,
      "Ġexperts": 5984,
      "SA": 5985,
      "SI": 5986,
      "dtype": 5987,
      "iling": 5988,
      "ĠManagement": 5989,
      "Ġconducted": 5990,
      "Ġseed": 5991,
      "ridge": 5992,
      "Ġvot": 5993,
      "Ġdisorder": 5994,
      "ĠIP": 5995,
      "tree": 5996,
      "58": 5997,
      "Ġsecret": 5998,
      "Ġcandid": 5999,
      "Ġlifestyle": 6000,
      "ographic": 6001,
      "Ġkeeping": 6002,
      "cons": 6003,
      "Ġempty": 6004,
      "Ġassessment": 6005,
      "ĠZeal": 6006,
      "Ġalt": 6007,
      "Ġmaximum": 6008,
      "ĠLou": 6009,
      "CR": 6010,
      "orough": 6011,
      "Ġfaster": 6012,
      "ctors": 6013,
      "ĠForm": 6014,
      "42": 6015,
      "Lab": 6016,
      "fill": 6017,
      "wer": 6018,
      "ĠYear": 6019,
      "Ġdetailed": 6020,
      "IO": 6021,
      "ightly": 6022,
      "Ġprovider": 6023,
      "bi": 6024,
      "Ġbrother": 6025,
      "ĠParty": 6026,
      "Ġfinally": 6027,
      "ulum": 6028,
      "Ġconnections": 6029,
      "ĠIr": 6030,
      "ĠUser": 6031,
      "ala": 6032,
      "Ġdiscovered": 6033,
      "Ġdrop": 6034,
      "Ġserves": 6035,
      "Ġpurposes": 6036,
      "Ġnarr": 6037,
      "lers": 6038,
      "fin": 6039,
      "ĠZealand": 6040,
      "Ġrelatively": 6041,
      "Ġsurrounding": 6042,
      "sn": 6043,
      "Ġdiscover": 6044,
      "ĠCentral": 6045,
      "Ġfootballers": 6046,
      "apsh": 6047,
      "itors": 6048,
      "Ġfocused": 6049,
      "ĠBro": 6050,
      "ĠTexas": 6051,
      "RANT": 6052,
      "Ġlanguages": 6053,
      "cor": 6054,
      "headers": 6055,
      "fs": 6056,
      "acts": 6057,
      "Ġprotocol": 6058,
      "Ġgrant": 6059,
      "================================": 6060,
      "ĠSecond": 6061,
      "Ð°": 6062,
      "ĠEff": 6063,
      "ĠUN": 6064,
      "itness": 6065,
      "Ġ189": 6066,
      "86": 6067,
      "mm": 6068,
      "Ġaid": 6069,
      "ĠUs": 6070,
      "ifies": 6071,
      "ĠTherefore": 6072,
      "Ġcompliance": 6073,
      "channel": 6074,
      "rie": 6075,
      "Ġoperating": 6076,
      "Ġreports": 6077,
      "Ġwrong": 6078,
      "Ġgets": 6079,
      "Ġevolution": 6080,
      "Ġtemp": 6081,
      "Ġbone": 6082,
      "Ġtissue": 6083,
      "Ġemergency": 6084,
      "Ġinflammation": 6085,
      "Ġgenus": 6086,
      "ĠWIT": 6087,
      "urthermore": 6088,
      "Ġattacks": 6089,
      "Ġsustainability": 6090,
      "Count": 6091,
      "Ġroles": 6092,
      "ĠCreate": 6093,
      "ĠMont": 6094,
      "ĠPen": 6095,
      "try": 6096,
      "Ġrein": 6097,
      "Ġmulti": 6098,
      "abits": 6099,
      "Ġspaces": 6100,
      "ĠFranc": 6101,
      "Line": 6102,
      "Ġhousehold": 6103,
      "ressed": 6104,
      "HT": 6105,
      "zil": 6106,
      "batch": 6107,
      "Ġsets": 6108,
      "Ġcitizens": 6109,
      "Ġwidth": 6110,
      "Ġcollaboration": 6111,
      "Ġheav": 6112,
      "prov": 6113,
      "Ġwear": 6114,
      "uing": 6115,
      "=%": 6116,
      "tests": 6117,
      "Another": 6118,
      "({": 6119,
      "ĠAustralian": 6120,
      "ĠWARRANT": 6121,
      "ainer": 6122,
      "Ġclinical": 6123,
      "ĠSec": 6124,
      "ĠOlymp": 6125,
      "ĠBuild": 6126,
      "Ġbuy": 6127,
      "astern": 6128,
      "ele": 6129,
      "ĠNor": 6130,
      "Ġgender": 6131,
      "Ġtold": 6132,
      "Ġlegisl": 6133,
      "Ġfeelings": 6134,
      "ĠĠĊ": 6135,
      "Ġconsequences": 6136,
      "Ġinternet": 6137,
      "stract": 6138,
      "record": 6139,
      "grid": 6140,
      "tmp": 6141,
      "FL": 6142,
      "Ġterrit": 6143,
      "Ġque": 6144,
      "Ġphase": 6145,
      "Conn": 6146,
      "Ġrender": 6147,
      "ped": 6148,
      "Ġfol": 6149,
      "DA": 6150,
      "47": 6151,
      "Service": 6152,
      "Ġship": 6153,
      "Ġexperiment": 6154,
      "ĠEgypt": 6155,
      "Ġcontrast": 6156,
      "Ġiron": 6157,
      "Ġshift": 6158,
      "estival": 6159,
      "othing": 6160,
      "making": 6161,
      "Ġ_(\"": 6162,
      "ĠHen": 6163,
      "Ġrang": 6164,
      "LI": 6165,
      "Ġsupporting": 6166,
      "yles": 6167,
      "Ġ1990": 6168,
      "Ġaccessible": 6169,
      "ĠSpanish": 6170,
      "Ġenv": 6171,
      "Ġfoundation": 6172,
      "Ġmist": 6173,
      "Ġfeeling": 6174,
      "Proper": 6175,
      "Ġ'-": 6176,
      "59": 6177,
      "Ġeg": 6178,
      "Ġadop": 6179,
      "Ġlatest": 6180,
      "Ġsongs": 6181,
      "Ġ::": 6182,
      "Ġagre": 6183,
      "icit": 6184,
      "ĠTime": 6185,
      "lam": 6186,
      "Ġsupports": 6187,
      "Ġ2003": 6188,
      "Ġdeliver": 6189,
      "Ġexcellent": 6190,
      "Ġarri": 6191,
      "Ġengaging": 6192,
      "parameters": 6193,
      "Ġcoordin": 6194,
      "Ġprem": 6195,
      "Ġhaz": 6196,
      "osen": 6197,
      "Bl": 6198,
      "Ġnotes": 6199,
      "Ġdepth": 6200,
      "ATION": 6201,
      "Ġprofile": 6202,
      "Ġcharge": 6203,
      "Ġrelative": 6204,
      "Ġaccuracy": 6205,
      "ĠTechnology": 6206,
      "Ġunivers": 6207,
      "Ġpollution": 6208,
      "Ġsplit": 6209,
      "asure": 6210,
      "Ġreached": 6211,
      "ĠJer": 6212,
      "Ġraised": 6213,
      "lements": 6214,
      "Ġdefe": 6215,
      "Ġdrugs": 6216,
      "Ġcustomer": 6217,
      "Ġharmful": 6218,
      "istant": 6219,
      "nes": 6220,
      "mean": 6221,
      "eties": 6222,
      "alog": 6223,
      "Ġconclusion": 6224,
      "ĠIsrael": 6225,
      "ologist": 6226,
      "ĠBay": 6227,
      "Ġconsistent": 6228,
      "ĠConn": 6229,
      "Ġkeys": 6230,
      "ĠDesign": 6231,
      "ĠSol": 6232,
      ".')": 6233,
      "Ġattribute": 6234,
      "style": 6235,
      "member": 6236,
      "Ġappears": 6237,
      "ĠProject": 6238,
      "ptions": 6239,
      "annels": 6240,
      "Ġotherwise": 6241,
      "Ġrepresents": 6242,
      "QU": 6243,
      "CP": 6244,
      "ĠCompany": 6245,
      "ona": 6246,
      "Ġplt": 6247,
      "Ġpoly": 6248,
      "handle": 6249,
      "ĠMiss": 6250,
      "ĠPlan": 6251,
      "Ġcarried": 6252,
      "Ġfacilities": 6253,
      "Ġsigned": 6254,
      "emporary": 6255,
      "ĠGen": 6256,
      "Ġguidance": 6257,
      "DB": 6258,
      "ĠĠĠĠĠĠĠĠĠĠĠĠĠĠĠĠĠĠĠĠĠĠĠĠĠĠĠĠĠĠ": 6259,
      "Ġoxygen": 6260,
      "quality": 6261,
      "Ġsuggests": 6262,
      "Ġauthent": 6263,
      "rite": 6264,
      "Ġwriter": 6265,
      "Ġwall": 6266,
      "76": 6267,
      "Ġfamous": 6268,
      "Ġpieces": 6269,
      "ashion": 6270,
      "ba": 6271,
      "According": 6272,
      "Ġexists": 6273,
      "Ġperiods": 6274,
      "Fore": 6275,
      "Ġlies": 6276,
      "Ġflag": 6277,
      "Ġadvantage": 6278,
      "Ġresol": 6279,
      "Ġgrid": 6280,
      "Ġcompetition": 6281,
      "ĠRad": 6282,
      "Ġphilos": 6283,
      "Ġpush": 6284,
      "Ġannounced": 6285,
      "Ab": 6286,
      "Fact": 6287,
      "Ġkid": 6288,
      "oves": 6289,
      "help": 6290,
      "Ġjobs": 6291,
      "Ġmeeting": 6292,
      "Ġimplementation": 6293,
      "Ġpul": 6294,
      "Ġvoice": 6295,
      "Ġheaders": 6296,
      "Ġflowers": 6297,
      "Ġhappen": 6298,
      "Ġroll": 6299,
      "Ġsensitive": 6300,
      "oz": 6301,
      "ĠDet": 6302,
      "Ġphen": 6303,
      "ĠCanadian": 6304,
      "Ġalle": 6305,
      "Call": 6306,
      "umin": 6307,
      "Ð¾": 6308,
      "Ġresp": 6309,
      "Ġdecades": 6310,
      "Ġ2001": 6311,
      "Ġparticipants": 6312,
      "Ġstatement": 6313,
      "Ġfab": 6314,
      "Ġroutine": 6315,
      "Ġfinding": 6316,
      "Ġbottom": 6317,
      "ĠBi": 6318,
      "ĠBas": 6319,
      "Ġdirected": 6320,
      "ĠKh": 6321,
      "Rep": 6322,
      "Ġcateg": 6323,
      "Ġedge": 6324,
      "Ġoral": 6325,
      "ĠEr": 6326,
      "usiness": 6327,
      "Ġreferred": 6328,
      "Ġsac": 6329,
      "Ġcreative": 6330,
      "Image": 6331,
      "Ġapprec": 6332,
      "img": 6333,
      "Ġcutting": 6334,
      "Ġcraft": 6335,
      "Ġcris": 6336,
      "ĠOnce": 6337,
      "Ġannual": 6338,
      "ĠId": 6339,
      "space": 6340,
      "âĢ¢": 6341,
      "Client": 6342,
      "Ġbeautiful": 6343,
      "Ġupper": 6344,
      "Ġpresented": 6345,
      "Ġartificial": 6346,
      "Ġbudget": 6347,
      "Ġthick": 6348,
      "={": 6349,
      "ained": 6350,
      "Ġadvoc": 6351,
      "Ġflood": 6352,
      "Ġeast": 6353,
      "Ġfounded": 6354,
      "\"])": 6355,
      "Ġantib": 6356,
      "Ġamounts": 6357,
      "Ġfindings": 6358,
      "Ġhun": 6359,
      "ĠFood": 6360,
      "ĠSing": 6361,
      "ĠMexico": 6362,
      "offset": 6363,
      "roph": 6364,
      "bour": 6365,
      "Ġinvent": 6366,
      "uri": 6367,
      "Ġbool": 6368,
      "ĠLearning": 6369,
      "Ġfrequency": 6370,
      "Imp": 6371,
      "Ġhospital": 6372,
      "Ġvitamin": 6373,
      "well": 6374,
      "54": 6375,
      "example": 6376,
      "Ġblog": 6377,
      "Ġcovered": 6378,
      "riate": 6379,
      "2009": 6380,
      "Ġseeking": 6381,
      "element": 6382,
      "register": 6383,
      "erial": 6384,
      "else": 6385,
      "Ġdeeper": 6386,
      "web": 6387,
      "Ġvess": 6388,
      "Ġsubsequ": 6389,
      "]),": 6390,
      "display": 6391,
      "Ġvast": 6392,
      "Ġadvice": 6393,
      "div": 6394,
      "ella": 6395,
      "bot": 6396,
      "Ġhelped": 6397,
      "ĠAmericans": 6398,
      "Ġvariables": 6399,
      "icens": 6400,
      "Ġrank": 6401,
      "Message": 6402,
      "Ġaircraft": 6403,
      "Ġpil": 6404,
      "Ġspeech": 6405,
      "Ġinnovative": 6406,
      "ĠTor": 6407,
      "ĠEv": 6408,
      "Ġtransition": 6409,
      "Table": 6410,
      "Ġtraffic": 6411,
      "Here": 6412,
      "Ġhop": 6413,
      "Ġvent": 6414,
      "Ġelection": 6415,
      "ĠMag": 6416,
      "Ġingred": 6417,
      "Ġassociation": 6418,
      "draw": 6419,
      "igenous": 6420,
      "Ġstored": 6421,
      "Ġspring": 6422,
      "Ġspecifically": 6423,
      "Men": 6424,
      "Ġclosed": 6425,
      "alysis": 6426,
      "ĠGovernment": 6427,
      "burg": 6428,
      "Ġselection": 6429,
      "lig": 6430,
      "ĠSam": 6431,
      "ĠSpace": 6432,
      "stone": 6433,
      "Ġ2002": 6434,
      "rt": 6435,
      "Ġagricultural": 6436,
      "Ġkilled": 6437,
      "Ġdouble": 6438,
      "....": 6439,
      "Ġvegetables": 6440,
      "Ġ80": 6441,
      "Ġclick": 6442,
      "Ġintended": 6443,
      "ĠAPI": 6444,
      "Ġcapabilities": 6445,
      "Ġgoods": 6446,
      "EC": 6447,
      "'][": 6448,
      "62": 6449,
      "ĠPlay": 6450,
      "ĠSun": 6451,
      "Ġmilk": 6452,
      "arant": 6453,
      "Ġreliable": 6454,
      "ĠGreek": 6455,
      "Ġnull": 6456,
      "ĠDec": 6457,
      "Ġsmooth": 6458,
      "ĠWhite": 6459,
      "Ġsurgery": 6460,
      "views": 6461,
      "ĠRoyal": 6462,
      "ĠGoogle": 6463,
      "Ġindicate": 6464,
      "window": 6465,
      "ded": 6466,
      "Ġaffects": 6467,
      "Ġsequence": 6468,
      "mas": 6469,
      "pow": 6470,
      "Ġlibrary": 6471,
      "inv": 6472,
      "Ġfasc": 6473,
      "Ġsteel": 6474,
      "Ġple": 6475,
      "Ġviews": 6476,
      "89": 6477,
      "usr": 6478,
      "Ġinstrument": 6479,
      "etal": 6480,
      "ĠMad": 6481,
      "They": 6482,
      "Ġwealth": 6483,
      "Ġvar": 6484,
      "Ġsatis": 6485,
      "creen": 6486,
      "Ġprepare": 6487,
      "ĠAsia": 6488,
      "Ġdepends": 6489,
      "Ġpages": 6490,
      "Ġworldwide": 6491,
      "Ġchemicals": 6492,
      "exception": 6493,
      "Ġlett": 6494,
      "Ġ31": 6495,
      "NO": 6496,
      "Ġcache": 6497,
      "zone": 6498,
      "Ġleader": 6499,
      "Rem": 6500,
      "edy": 6501,
      "ĠRussia": 6502,
      "grade": 6503,
      "ĠFe": 6504,
      "Ġera": 6505,
      "Ġparse": 6506,
      "struct": 6507,
      "Ġfaith": 6508,
      "Ġcreates": 6509,
      "Ġdedicated": 6510,
      "Ġflat": 6511,
      "Ġfinished": 6512,
      "Ġsurvey": 6513,
      "Ġreduction": 6514,
      "---": 6515,
      "ĠGold": 6516,
      "ieving": 6517,
      "ĠJewish": 6518,
      "Ġpopulations": 6519,
      "Ġongoing": 6520,
      "Ġnoted": 6521,
      "Ġpool": 6522,
      "Ġgrass": 6523,
      "ishes": 6524,
      "Ġliterature": 6525,
      "Ġarchitecture": 6526,
      "Ġresponsibility": 6527,
      "ĠLin": 6528,
      "raining": 6529,
      "Ġmel": 6530,
      "Ġtreated": 6531,
      "Ġstraight": 6532,
      "Ġexchange": 6533,
      "ĠEnergy": 6534,
      "Step": 6535,
      "Ġapproaches": 6536,
      "Point": 6537,
      "login": 6538,
      "di": 6539,
      "Ġunderlying": 6540,
      "Ġobserved": 6541,
      "Ġsexual": 6542,
      "Ġyellow": 6543,
      "Ġisol": 6544,
      "non": 6545,
      "friendly": 6546,
      "Ġspent": 6547,
      "Ġfarmers": 6548,
      "hem": 6549,
      "car": 6550,
      "ameters": 6551,
      "course": 6552,
      "ĠBre": 6553,
      "Ġinteresting": 6554,
      "Ġlabels": 6555,
      "Ġconvert": 6556,
      "Ġmitig": 6557,
      "Build": 6558,
      "ĠKore": 6559,
      "Ġfundamental": 6560,
      "Ge": 6561,
      "liament": 6562,
      "Event": 6563,
      "Ġfruits": 6564,
      "Ġtuple": 6565,
      "Ġtit": 6566,
      "ĠSuper": 6567,
      "Ġcombined": 6568,
      "Ġfine": 6569,
      "Ġinterface": 6570,
      "Ġsand": 6571,
      "button": 6572,
      "ican": 6573,
      "Ġinteractions": 6574,
      "ĠSte": 6575,
      "Ġmainly": 6576,
      "Per": 6577,
      "ĠJournal": 6578,
      "arrow": 6579,
      "fail": 6580,
      "exit": 6581,
      "Understanding": 6582,
      "Ġdeploy": 6583,
      "Ġwife": 6584,
      "Ġpackage": 6585,
      "ĠWomen": 6586,
      "pare": 6587,
      "Of": 6588,
      "ĠImport": 6589,
      "Ġartist": 6590,
      "ĠUnderstanding": 6591,
      "ogen": 6592,
      "43": 6593,
      "85": 6594,
      "ĠAny": 6595,
      "Qt": 6596,
      "Ġcere": 6597,
      "widget": 6598,
      "pping": 6599,
      "Ġcircum": 6600,
      "ĠMem": 6601,
      "Ġfeedback": 6602,
      "ĠBecause": 6603,
      "Ġappeared": 6604,
      "rat": 6605,
      "Ġbeauty": 6606,
      "allel": 6607,
      "ĠDivision": 6608,
      "Ġenum": 6609,
      "Ġsamples": 6610,
      "Ġroots": 6611,
      "Ġresilience": 6612,
      "Do": 6613,
      "ector": 6614,
      "prot": 6615,
      "ows": 6616,
      "Ġlimitations": 6617,
      "Ġdiversity": 6618,
      "Ġsusp": 6619,
      "oose": 6620,
      "Ġprepared": 6621,
      "apers": 6622,
      "child": 6623,
      "sv": 6624,
      "king": 6625,
      "Ġmentioned": 6626,
      "second": 6627,
      "ĠBal": 6628,
      "Ġ1980": 6629,
      "Ġmovements": 6630,
      "Ġthoughts": 6631,
      "pub": 6632,
      "________": 6633,
      "ĠPost": 6634,
      "Ġabsol": 6635,
      "Ġskill": 6636,
      "istent": 6637,
      ")[": 6638,
      "riage": 6639,
      "icket": 6640,
      "CS": 6641,
      "Ġoffset": 6642,
      "abling": 6643,
      "ĠNOT": 6644,
      "Â°": 6645,
      "Ġdocuments": 6646,
      "Ġadvantages": 6647,
      "During": 6648,
      "riculum": 6649,
      "Ġexperim": 6650,
      "ersonal": 6651,
      "Ġrul": 6652,
      "ĠAward": 6653,
      "Ġdetail": 6654,
      "iform": 6655,
      "Ġintegration": 6656,
      "Ġhabits": 6657,
      "ĠPower": 6658,
      "Ġoptimal": 6659,
      "roke": 6660,
      "Ġ\"\"": 6661,
      "ctx": 6662,
      "RA": 6663,
      "spe": 6664,
      "Ġprev": 6665,
      "rowser": 6666,
      "ĠThomas": 6667,
      "\",\"": 6668,
      "Ġpolice": 6669,
      "Ġdespite": 6670,
      "Ġclim": 6671,
      "ova": 6672,
      "Ġ2023": 6673,
      "Ġkm": 6674,
      "DS": 6675,
      "Ġmanager": 6676,
      "ĠRun": 6677,
      "Ġanyone": 6678,
      "Ġthousands": 6679,
      "Element": 6680,
      "Ġmarried": 6681,
      "Ġremained": 6682,
      "asket": 6683,
      "Ġhearing": 6684,
      "ĠVol": 6685,
      "ĠHuman": 6686,
      "Ġshowed": 6687,
      "Ġlisted": 6688,
      "Ġdriver": 6689,
      "Ġleadership": 6690,
      "Ġclassroom": 6691,
      "Ġextremely": 6692,
      "Ġletter": 6693,
      "queue": 6694,
      "Ġwait": 6695,
      "DIR": 6696,
      "Ġinteract": 6697,
      "lean": 6698,
      "Ġdidn": 6699,
      "Ġextreme": 6700,
      "Ġenhancing": 6701,
      "Ġ],": 6702,
      "itt": 6703,
      "Ġpicture": 6704,
      "GET": 6705,
      "Ġgrand": 6706,
      "Ġfort": 6707,
      "late": 6708,
      "ĠMass": 6709,
      "urd": 6710,
      "itory": 6711,
      "Ġreverse": 6712,
      "Ġtrou": 6713,
      "Ġreq": 6714,
      "ĠAcc": 6715,
      "Ġleaving": 6716,
      "Ġ<=": 6717,
      "Del": 6718,
      "ĠKingdom": 6719,
      "utch": 6720,
      "Ġstability": 6721,
      "Ġdebut": 6722,
      "Ġdiagnosis": 6723,
      "ĠFOR": 6724,
      "Ġformation": 6725,
      "Ġmedications": 6726,
      "ĠInternet": 6727,
      "Ġmostly": 6728,
      "imary": 6729,
      "Ġtransportation": 6730,
      "Ġcultiv": 6731,
      "EM": 6732,
      "encode": 6733,
      "operation": 6734,
      "ky": 6735,
      "itar": 6736,
      "Ġdangerous": 6737,
      "Ġguidelines": 6738,
      "ola": 6739,
      "Ġdecided": 6740,
      "Ġverbose": 6741,
      "apshot": 6742,
      "Run": 6743,
      "BU": 6744,
      "PAT": 6745,
      "ĠUsing": 6746,
      "Ġpros": 6747,
      "nic": 6748,
      "Ġneuro": 6749,
      "Ġnodes": 6750,
      "ĠEmp": 6751,
      "More": 6752,
      "Ġ\"/": 6753,
      "ĠMusic": 6754,
      "derr": 6755,
      "unc": 6756,
      "Integer": 6757,
      "Ġcalls": 6758,
      "ipping": 6759,
      "iced": 6760,
      "Ġmetadata": 6761,
      "Ġrequests": 6762,
      "yr": 6763,
      "Ġmuscles": 6764,
      "Ġmetab": 6765,
      "Ġrelax": 6766,
      "Handler": 6767,
      "ĠVirgin": 6768,
      "Ġcleaning": 6769,
      "ysical": 6770,
      "ĠTown": 6771,
      "eph": 6772,
      "Ġmunicip": 6773,
      "Ġcenturies": 6774,
      "Pre": 6775,
      "rot": 6776,
      "ĠLife": 6777,
      "Ġtrib": 6778,
      "Ġvert": 6779,
      "Ġcrypt": 6780,
      "Ġroute": 6781,
      "ĠTV": 6782,
      "Ġcustomers": 6783,
      "ao": 6784,
      "cers": 6785,
      "Ġsan": 6786,
      "Ġhuge": 6787,
      "Ġoffered": 6788,
      "ĠCommission": 6789,
      "tags": 6790,
      "Ġtherm": 6791,
      "Ġconfidence": 6792,
      "diff": 6793,
      "Ġpreventing": 6794,
      "ĠLake": 6795,
      "500": 6796,
      "Ġiter": 6797,
      "Button": 6798,
      "Ġcategory": 6799,
      "temp": 6800,
      "Ġprocedures": 6801,
      "Ġbegins": 6802,
      "Ġdesigns": 6803,
      "%(": 6804,
      "Ġbattle": 6805,
      "Ġviolence": 6806,
      "Ġeggs": 6807,
      "Ġip": 6808,
      "oking": 6809,
      "ĠRoad": 6810,
      "ifest": 6811,
      "Ġstations": 6812,
      "Ġâ": 6813,
      "Ġparameter": 6814,
      "wd": 6815,
      "ĠChildren": 6816,
      "Ġpriorit": 6817,
      "igan": 6818,
      "Ġmachines": 6819,
      "cut": 6820,
      "Ġarrang": 6821,
      "sort": 6822,
      "Ġhappens": 6823,
      "olf": 6824,
      "Ġinjuries": 6825,
      "Ġdictionary": 6826,
      "ĠURL": 6827,
      "Ġcolumns": 6828,
      "Ġarm": 6829,
      "ĠCare": 6830,
      "ĠUnder": 6831,
      "groups": 6832,
      "profile": 6833,
      "sql": 6834,
      "Ġshell": 6835,
      "iated": 6836,
      "Ġ1970": 6837,
      "Ġreduces": 6838,
      "Ġtopics": 6839,
      "miss": 6840,
      "Pol": 6841,
      "XXXX": 6842,
      "QL": 6843,
      "Ġcourses": 6844,
      "Ġaudience": 6845,
      "addr": 6846,
      "bound": 6847,
      "vol": 6848,
      "Ġutf": 6849,
      "clean": 6850,
      "ictor": 6851,
      "ĠLand": 6852,
      "Ġpred": 6853,
      "ston": 6854,
      "ras": 6855,
      "Ġmiles": 6856,
      "aph": 6857,
      "ĠLord": 6858,
      "Ġimplied": 6859,
      "Ġlearned": 6860,
      "Ġlocations": 6861,
      "Ġsurpr": 6862,
      "ĠJose": 6863,
      "Ġzero": 6864,
      "Ġtruth": 6865,
      "Ġupdated": 6866,
      "ĠCongress": 6867,
      "rations": 6868,
      "pay": 6869,
      "Ġresidents": 6870,
      "Create": 6871,
      "Ġyouth": 6872,
      "Ġdefinition": 6873,
      "57": 6874,
      "Back": 6875,
      "----------------------------------------------------------------": 6876,
      "ĠCult": 6877,
      "Ġdecor": 6878,
      "Ġinterests": 6879,
      "ĠPri": 6880,
      "\").": 6881,
      "full": 6882,
      "ette": 6883,
      "oviet": 6884,
      "swith": 6885,
      "ĠItalian": 6886,
      "Ġcrisis": 6887,
      "height": 6888,
      "icing": 6889,
      "Ġreplaced": 6890,
      "etry": 6891,
      "thread": 6892,
      "Ġopening": 6893,
      "ĠFlor": 6894,
      "46": 6895,
      "bt": 6896,
      "Ġunknown": 6897,
      "DF": 6898,
      "Ġfloor": 6899,
      "Ġshall": 6900,
      "Ġisland": 6901,
      "Ġbehaviors": 6902,
      "Instance": 6903,
      "Ġstre": 6904,
      "`.": 6905,
      "illa": 6906,
      "ads": 6907,
      "Ġ90": 6908,
      "othes": 6909,
      "Ġmobile": 6910,
      "Ġlived": 6911,
      "Ġethical": 6912,
      "TYPE": 6913,
      "rant": 6914,
      "ĠFrancis": 6915,
      "Ġbreast": 6916,
      "Ġdesired": 6917,
      "Ġrecognize": 6918,
      "oices": 6919,
      "onym": 6920,
      "apes": 6921,
      "Ġmanaged": 6922,
      "Ġlaun": 6923,
      "ita": 6924,
      "FAULT": 6925,
      "PRO": 6926,
      "aked": 6927,
      "shire": 6928,
      "Ġruns": 6929,
      "ĠJack": 6930,
      "Ġprocedure": 6931,
      "ye": 6932,
      "Ġgather": 6933,
      "Sp": 6934,
      "DI": 6935,
      "Ġgar": 6936,
      "Ġturned": 6937,
      "ĠAff": 6938,
      "idity": 6939,
      "ĠBase": 6940,
      "Ġalgorithms": 6941,
      "empty": 6942,
      "labels": 6943,
      "Ġsetup": 6944,
      "enth": 6945,
      "uls": 6946,
      "Ġcompos": 6947,
      "Ġsuccessfully": 6948,
      "Ġestimated": 6949,
      "rays": 6950,
      "ĠFrank": 6951,
      "sample": 6952,
      "Ġpresident": 6953,
      "HOUT": 6954,
      "uzz": 6955,
      "Ġexposed": 6956,
      "ĠCommon": 6957,
      "edge": 6958,
      "Ent": 6959,
      "Ġ):": 6960,
      "ORT": 6961,
      "ĠEvery": 6962,
      "Ġdynamic": 6963,
      "Command": 6964,
      "Ġsubstant": 6965,
      "Ġinterested": 6966,
      "Ġstock": 6967,
      "scri": 6968,
      "Ġregul": 6969,
      "nam": 6970,
      "Ġcontainer": 6971,
      "ĠArab": 6972,
      "ĠAND": 6973,
      "Ġfreedom": 6974,
      "Ġblocks": 6975,
      "Ġdivision": 6976,
      "âĢĿ,": 6977,
      "ja": 6978,
      "ĠBrazil": 6979,
      "Ġopin": 6980,
      "setup": 6981,
      "Ġtrends": 6982,
      "Ġconsists": 6983,
      "ĠNetwork": 6984,
      "Ġbalanced": 6985,
      "Ġdegrees": 6986,
      "Ġvs": 6987,
      "icious": 6988,
      "PC": 6989,
      "Ġaddressing": 6990,
      "AGE": 6991,
      "Ġmoisture": 6992,
      "[:,": 6993,
      "Ġremark": 6994,
      "ĠVis": 6995,
      "driver": 6996,
      "Ġextended": 6997,
      "Ġoriginally": 6998,
      "ena": 6999,
      "Ġswitch": 7000,
      "53": 7001,
      "ĠTreat": 7002,
      "56": 7003,
      "ĠLO": 7004,
      "Me": 7005,
      "Ġperman": 7006,
      "Ġmathemat": 7007,
      "Ġperspective": 7008,
      "lets": 7009,
      "ĠOper": 7010,
      "ĠCat": 7011,
      "Ġkill": 7012,
      "Ġstone": 7013,
      "Ġbatch": 7014,
      "41": 7015,
      "ologists": 7016,
      "osc": 7017,
      "Ġfiber": 7018,
      "rates": 7019,
      "conomic": 7020,
      "Ġstarts": 7021,
      "ĠPract": 7022,
      "Ġarticles": 7023,
      "Ġowner": 7024,
      "Ġmac": 7025,
      "ĠRegular": 7026,
      "inations": 7027,
      "ĠPan": 7028,
      "Ġallerg": 7029,
      "'ll": 7030,
      ":]": 7031,
      "ishop": 7032,
      "startswith": 7033,
      "Ġcapture": 7034,
      "Ġultimately": 7035,
      "FO": 7036,
      "Ġmatches": 7037,
      "Ġbranch": 7038,
      "ĠCamp": 7039,
      "Ġparties": 7040,
      "Start": 7041,
      "Ġwanted": 7042,
      "Ġhyper": 7043,
      "riers": 7044,
      "Ġagreed": 7045,
      "Ġmodify": 7046,
      "ocratic": 7047,
      "Ġexactly": 7048,
      "Window": 7049,
      "Ġstated": 7050,
      "Equ": 7051,
      "Ġfunc": 7052,
      "timeout": 7053,
      "Ġstages": 7054,
      "reshold": 7055,
      ",'": 7056,
      "lat": 7057,
      "ĠBet": 7058,
      "ponent": 7059,
      "Ġapi": 7060,
      "Ġcommitment": 7061,
      "ĠĠĠĠĠĠĠĠĠĠĠĠĊ": 7062,
      "ossible": 7063,
      "Ġagriculture": 7064,
      "ameter": 7065,
      "Ġminim": 7066,
      "ĠWITHOUT": 7067,
      "(['": 7068,
      "Ġfirm": 7069,
      "ĠĠĠĠĠĠĠĠĠĠĠĠĠĠĠĠĠĠĠĠĠĠĠĠĠĠĠĠĠĠĠĠĠ": 7070,
      "Ġfle": 7071,
      "Ġ500": 7072,
      "Ġnuclear": 7073,
      "Ġcritic": 7074,
      "Our": 7075,
      "Ġfalse": 7076,
      "Ġattributes": 7077,
      "Ġbot": 7078,
      "Ġatmosphere": 7079,
      "reland": 7080,
      "ivery": 7081,
      "Ġconsumer": 7082,
      "inating": 7083,
      "Ġwhom": 7084,
      "ĠDev": 7085,
      "Ġinstalled": 7086,
      "52": 7087,
      "Ġwonder": 7088,
      "ĠMat": 7089,
      "Ġreaction": 7090,
      "stats": 7091,
      "ih": 7092,
      "Ġthreats": 7093,
      "layer": 7094,
      "Ġfixed": 7095,
      "Ġconsumers": 7096,
      "vas": 7097,
      "Ġoptional": 7098,
      "unct": 7099,
      "ĠLong": 7100,
      "CONF": 7101,
      "Ġsharing": 7102,
      "Ġparticles": 7103,
      "Ġrecognized": 7104,
      "Ġbg": 7105,
      "then": 7106,
      "rapper": 7107,
      "Ġremaining": 7108,
      "ĠBoth": 7109,
      "ĠMer": 7110,
      "itter": 7111,
      "ĠĠĠĠĠĠĠĠĠĠĠĠĠĠĠĠĠĠĠĠĠĠĠĠĠĠĠĠĠĠĠĠĠĠĠĠĠĠĠ": 7112,
      "ua": 7113,
      "Ġseconds": 7114,
      "Ġnavigate": 7115,
      "tty": 7116,
      "world": 7117,
      "ĠParis": 7118,
      "My": 7119,
      "Ġwa": 7120,
      "tab": 7121,
      "ĠGrand": 7122,
      "ulf": 7123,
      "Ġdetection": 7124,
      "Ear": 7125,
      "igital": 7126,
      "ĠAcademy": 7127,
      "eval": 7128,
      "Ġvisible": 7129,
      "GB": 7130,
      "Ġrecognition": 7131,
      "Ġprecision": 7132,
      "Part": 7133,
      "venue": 7134,
      "Ġprefix": 7135,
      "Ġnur": 7136,
      "js": 7137,
      "Ġ'_": 7138,
      "Ġpartner": 7139,
      "Ġdisrupt": 7140,
      "Ġwire": 7141,
      "aval": 7142,
      "Ġclosely": 7143,
      "Ġunf": 7144,
      "Ġhour": 7145,
      "rative": 7146,
      "sey": 7147,
      "Ġwors": 7148,
      "Ġà¤": 7149,
      "Ġvibr": 7150,
      "ĠHall": 7151,
      "Ġbright": 7152,
      "inf": 7153,
      "ĠDiff": 7154,
      "Ġharvest": 7155,
      "Ġforced": 7156,
      "IES": 7157,
      "Pr": 7158,
      "Ġeffectiveness": 7159,
      "Ġ\"\\": 7160,
      "Ġprotected": 7161,
      "ometry": 7162,
      "onic": 7163,
      "ansion": 7164,
      "Ġdelete": 7165,
      "otic": 7166,
      "iverse": 7167,
      "ĠControl": 7168,
      "azine": 7169,
      "Ġauthors": 7170,
      "ĠCharles": 7171,
      "ĠBest": 7172,
      "ĠKeep": 7173,
      "ĠExpl": 7174,
      "aser": 7175,
      "Ġhelpful": 7176,
      "Ġcultures": 7177,
      "ĠInstead": 7178,
      "ailability": 7179,
      "handler": 7180,
      "KEY": 7181,
      "ignKey": 7182,
      "isc": 7183,
      "Ġbow": 7184,
      "ested": 7185,
      "ĠLouis": 7186,
      "Ġexercises": 7187,
      "Ġwalls": 7188,
      "ura": 7189,
      "required": 7190,
      "fake": 7191,
      "Ġbrand": 7192,
      "asp": 7193,
      "door": 7194,
      "Ġdetermined": 7195,
      "eless": 7196,
      "Ġdra": 7197,
      "Status": 7198,
      "ceived": 7199,
      "Ġalbums": 7200,
      "report": 7201,
      "Ġsouthern": 7202,
      "contrib": 7203,
      "Ġ'--": 7204,
      "ĠDNA": 7205,
      "Ġaccounts": 7206,
      "51": 7207,
      "angle": 7208,
      "oded": 7209,
      "Ġdut": 7210,
      "Ġminimum": 7211,
      "nership": 7212,
      "Other": 7213,
      "ĠDE": 7214,
      "ABLE": 7215,
      "Ġignore": 7216,
      "ĠIll": 7217,
      "comfort": 7218,
      "Ġmigr": 7219,
      "Ġneut": 7220,
      "ĠAR": 7221,
      "Ġ1960": 7222,
      "Ġplease": 7223,
      "Ġproposed": 7224,
      "Ġstorm": 7225,
      "cred": 7226,
      "ATA": 7227,
      "Ġmotion": 7228,
      "Ġcoff": 7229,
      "cious": 7230,
      "ects": 7231,
      "Ġadult": 7232,
      "ĠStand": 7233,
      "onal": 7234,
      "ĠItaly": 7235,
      "ĠTwo": 7236,
      "ighter": 7237,
      "Bo": 7238,
      "Ġfluid": 7239,
      "Ass": 7240,
      "Ġinner": 7241,
      "ĠBul": 7242,
      "BS": 7243,
      "hav": 7244,
      "Ġunc": 7245,
      "Ġresponses": 7246,
      "ĠOld": 7247,
      "Ġhabitat": 7248,
      "Ġstands": 7249,
      "Ġprofessor": 7250,
      "Ġlock": 7251,
      "Ġholds": 7252,
      "Ġmeat": 7253,
      "ĠModel": 7254,
      "SH": 7255,
      "chen": 7256,
      "She": 7257,
      "Ġassistance": 7258,
      "role": 7259,
      "Ġphone": 7260,
      "71": 7261,
      "ustain": 7262,
      "Ġengagement": 7263,
      "compile": 7264,
      "gers": 7265,
      "control": 7266,
      "Co": 7267,
      "achine": 7268,
      "aturally": 7269,
      "uma": 7270,
      "kl": 7271,
      "erals": 7272,
      "Us": 7273,
      "(-": 7274,
      "errors": 7275,
      "Ġcorpor": 7276,
      "84": 7277,
      "Ġextensive": 7278,
      "Ġfashion": 7279,
      "Ġgovernments": 7280,
      "Ġfake": 7281,
      "ĠSant": 7282,
      "Ġgenerations": 7283,
      "Ġsalt": 7284,
      "Ġocean": 7285,
      "Ġamb": 7286,
      "soft": 7287,
      "Ġfib": 7288,
      "found": 7289,
      "forms": 7290,
      "Dir": 7291,
      "Gui": 7292,
      "Ġsched": 7293,
      "Ġintric": 7294,
      "atom": 7295,
      "anda": 7296,
      "rey": 7297,
      "Ġcats": 7298,
      "Ġfollows": 7299,
      "Ġkept": 7300,
      "cert": 7301,
      "elled": 7302,
      "Ġcontrolled": 7303,
      "Ġinsert": 7304,
      "ĠClub": 7305,
      "rev": 7306,
      "ĠVer": 7307,
      "Ġconven": 7308,
      "Ġonto": 7309,
      "Cons": 7310,
      "Äģ": 7311,
      "Ġdur": 7312,
      "Ġcollected": 7313,
      "Ġnorthern": 7314,
      "Ġfertil": 7315,
      "Ġenables": 7316,
      "Ġauthority": 7317,
      "Ġprices": 7318,
      "Ġshel": 7319,
      "ilation": 7320,
      "Ġtun": 7321,
      "Ġfif": 7322,
      "Ġimplemented": 7323,
      ").__": 7324,
      "ĠSaf": 7325,
      "Ġacts": 7326,
      "tage": 7327,
      "Ġaims": 7328,
      "argv": 7329,
      "Oper": 7330,
      "othe": 7331,
      "ribution": 7332,
      "INE": 7333,
      "ĠMicro": 7334,
      "Ġowners": 7335,
      "Ġnoise": 7336,
      "oder": 7337,
      "ideos": 7338,
      "Ġelectronic": 7339,
      "Ġcla": 7340,
      "Ġped": 7341,
      "Ġdaughter": 7342,
      ":%": 7343,
      "Ġmanner": 7344,
      "API": 7345,
      "cluded": 7346,
      "ali": 7347,
      "Ġsaying": 7348,
      "Ġspend": 7349,
      "Ġclearly": 7350,
      "Ġimprovement": 7351,
      "ializer": 7352,
      "Ġserving": 7353,
      "ĠTODO": 7354,
      "Ġcars": 7355,
      "Ġappointed": 7356,
      "Ġphenomen": 7357,
      "Ġrenewable": 7358,
      "Ġwildlife": 7359,
      "Ġbrief": 7360,
      "Ġpair": 7361,
      "sole": 7362,
      "ILITY": 7363,
      "fix": 7364,
      "ĠStart": 7365,
      "success": 7366,
      "ancer": 7367,
      "ontal": 7368,
      "ĠAngel": 7369,
      "Ġenabling": 7370,
      "****************": 7371,
      "disk": 7372,
      "ĠScott": 7373,
      "Py": 7374,
      "Ġsignals": 7375,
      "Ġstruggle": 7376,
      "Ġ70": 7377,
      "Ġafford": 7378,
      "engine": 7379,
      "Ġscope": 7380,
      "Ġepisode": 7381,
      "Ġslightly": 7382,
      "Ġdro": 7383,
      "ĠFlorida": 7384,
      "Ġexploration": 7385,
      "SON": 7386,
      "rivate": 7387,
      "Ġdrinking": 7388,
      "inner": 7389,
      "ascular": 7390,
      "ĠCommit": 7391,
      "ĠExper": 7392,
      "Ġsuc": 7393,
      "Ġcardi": 7394,
      "ensus": 7395,
      "Fe": 7396,
      "Ġlayers": 7397,
      "Ġlooks": 7398,
      "ws": 7399,
      "acific": 7400,
      "controll": 7401,
      "cknow": 7402,
      "arity": 7403,
      "Ġcommunicate": 7404,
      "Now": 7405,
      "ollowing": 7406,
      "Ġcir": 7407,
      "Ġjustice": 7408,
      "Ġadequ": 7409,
      "osa": 7410,
      "SP": 7411,
      "Ġveter": 7412,
      "Ġtrace": 7413,
      "Ġutils": 7414,
      "Ġeditor": 7415,
      "Ġcreativity": 7416,
      "Ġ--------": 7417,
      "using": 7418,
      "Ġfunding": 7419,
      "ĠCarol": 7420,
      "Ġmedium": 7421,
      "Action": 7422,
      "Ġtherap": 7423,
      "Ġintake": 7424,
      "IONS": 7425,
      "Ġimmediate": 7426,
      "Ġfostering": 7427,
      "Ġsquare": 7428,
      "install": 7429,
      "imer": 7430,
      "Ġpromin": 7431,
      "properties": 7432,
      "ĠMichael": 7433,
      "Ġsounds": 7434,
      "ĠLanguage": 7435,
      "folder": 7436,
      "Ġlessons": 7437,
      "ato": 7438,
      "Ġsick": 7439,
      "Ġperhaps": 7440,
      "Ġconvent": 7441,
      "ĠDu": 7442,
      "Ġmeant": 7443,
      "ĠSmith": 7444,
      "holders": 7445,
      "fall": 7446,
      "Ã¤": 7447,
      "Ġmedication": 7448,
      "cket": 7449,
      "ortunately": 7450,
      "ells": 7451,
      "Mock": 7452,
      "ampl": 7453,
      "HER": 7454,
      "icensed": 7455,
      "callback": 7456,
      "Ġcarefully": 7457,
      "Ġborder": 7458,
      "Ġaccel": 7459,
      "isher": 7460,
      "auto": 7461,
      "clear": 7462,
      "Ġwet": 7463,
      "ĠIslam": 7464,
      "ĠTer": 7465,
      "Ð¸": 7466,
      "Ġhorse": 7467,
      "Ġsecondary": 7468,
      "iled": 7469,
      "Ġrural": 7470,
      "Ġkit": 7471,
      "Ġdesc": 7472,
      "ĠBill": 7473,
      "Ġhandling": 7474,
      "Ġrepresented": 7475,
      "cest": 7476,
      "loads": 7477,
      "Ġgun": 7478,
      "move": 7479,
      "insert": 7480,
      "Ġ1999": 7481,
      "master": 7482,
      "Ġstudied": 7483,
      "Ġschedule": 7484,
      "Ġfro": 7485,
      "Ġpump": 7486,
      "Ġmarked": 7487,
      "click": 7488,
      "Ġrecip": 7489,
      "Ġrapidly": 7490,
      "ĠSecurity": 7491,
      "Ġinteraction": 7492,
      "flags": 7493,
      "ĠAlexander": 7494,
      "ALL": 7495,
      "csv": 7496,
      "Colum": 7497,
      "Ġbridge": 7498,
      "Map": 7499,
      "ĠFootball": 7500,
      "Ġspeak": 7501,
      "ĠGlobal": 7502,
      "Ġprogramming": 7503,
      "under": 7504,
      "ASS": 7505,
      "Ġshowing": 7506,
      "commit": 7507,
      "stdout": 7508,
      "atters": 7509,
      "Ġinsurance": 7510,
      "ĠMedical": 7511,
      "ĠTw": 7512,
      "Ġprofound": 7513,
      "bling": 7514,
      "Ġsufficient": 7515,
      "math": 7516,
      "-%": 7517,
      "ĠCD": 7518,
      "SC": 7519,
      "Ġaren": 7520,
      "Ġdocumentation": 7521,
      "Ġzone": 7522,
      "bia": 7523,
      "ĠIreland": 7524,
      "Ġfont": 7525,
      "pers": 7526,
      "Ġthorough": 7527,
      "ndrome": 7528,
      "Ġcry": 7529,
      "ĠGood": 7530,
      "Ġnom": 7531,
      "ĠSign": 7532,
      "Found": 7533,
      "Ġcatch": 7534,
      "Ġrepresentation": 7535,
      "Ġmarg": 7536,
      "columns": 7537,
      "lights": 7538,
      "menu": 7539,
      "wa": 7540,
      "created": 7541,
      "bytes": 7542,
      "ĠAdv": 7543,
      "ĠThus": 7544,
      "while": 7545,
      "Ġstret": 7546,
      "ĠForce": 7547,
      "ĠCap": 7548,
      "ĠSwed": 7549,
      "Ġtmp": 7550,
      "Work": 7551,
      "ĠToday": 7552,
      "Ġgut": 7553,
      "kin": 7554,
      "Ġblank": 7555,
      "ĠCivil": 7556,
      "Ġexploring": 7557,
      "Ġfilters": 7558,
      "87": 7559,
      "anes": 7560,
      "unte": 7561,
      "ĠInit": 7562,
      "entity": 7563,
      "Ġgetattr": 7564,
      "ummy": 7565,
      "Ġgrade": 7566,
      "Ġnutrition": 7567,
      "ker": 7568,
      "Ġflight": 7569,
      "Ġfamiliar": 7570,
      "rating": 7571,
      "Ġhear": 7572,
      "Ġregional": 7573,
      "Tem": 7574,
      "comment": 7575,
      "player": 7576,
      "Art": 7577,
      "Ġoperate": 7578,
      "Ġtrial": 7579,
      "Label": 7580,
      "Ġsorted": 7581,
      "Dev": 7582,
      "ĠBoard": 7583,
      "Ġadvancements": 7584,
      "erves": 7585,
      "Ġpandemic": 7586,
      "dated": 7587,
      "Ġpurchase": 7588,
      "chers": 7589,
      "]+": 7590,
      "Ġachieved": 7591,
      "Ġreaders": 7592,
      "ĠPeter": 7593,
      "Ġprison": 7594,
      "Ġdescribe": 7595,
      "Ġliquid": 7596,
      "Ġdent": 7597,
      "Ġliver": 7598,
      "Red": 7599,
      "Act": 7600,
      "score": 7601,
      "Ġdiscussion": 7602,
      "ĠSeries": 7603,
      ".*": 7604,
      "ĠBritain": 7605,
      "ĠWild": 7606,
      "ga": 7607,
      "Ġdelay": 7608,
      "MM": 7609,
      "Ġ32": 7610,
      "POST": 7611,
      "ptional": 7612,
      "Ġmatrix": 7613,
      "Ġdivided": 7614,
      "Ġabuse": 7615,
      "OK": 7616,
      "ForeignKey": 7617,
      "Ġtradition": 7618,
      "xx": 7619,
      "Ġpaths": 7620,
      "otes": 7621,
      "Ġsolve": 7622,
      "Ġahead": 7623,
      "Ġmood": 7624,
      "Ġprevention": 7625,
      "Ġsubjects": 7626,
      "raise": 7627,
      "EO": 7628,
      "Ġstem": 7629,
      "reme": 7630,
      "Ġmusical": 7631,
      "oston": 7632,
      "cd": 7633,
      "application": 7634,
      "Off": 7635,
      "idae": 7636,
      "Ġshot": 7637,
      "Ġguitar": 7638,
      "which": 7639,
      "Ġexpensive": 7640,
      "Ġcoal": 7641,
      "Ġbill": 7642,
      "Ġrobust": 7643,
      "licenses": 7644,
      "Ġintervention": 7645,
      "Although": 7646,
      "ĠTel": 7647,
      "Ġpanels": 7648,
      "/%": 7649,
      "ĠUSA": 7650,
      "Ġtoxic": 7651,
      "Ġelected": 7652,
      "81": 7653,
      "Ac": 7654,
      "Vari": 7655,
      "ĠEnd": 7656,
      "Ġcircumst": 7657,
      "Ġrepair": 7658,
      "Manager": 7659,
      "SU": 7660,
      "ĠSoviet": 7661,
      "ĠBank": 7662,
      "ĠCr": 7663,
      "ĠMel": 7664,
      "Ġproviders": 7665,
      "255": 7666,
      "ROM": 7667,
      "plugin": 7668,
      "Ġdialog": 7669,
      "Ġstack": 7670,
      "82": 7671,
      "Ġprivacy": 7672,
      "Ġreact": 7673,
      "ĠIns": 7674,
      "Ġmold": 7675,
      "Ġcurriculum": 7676,
      "oval": 7677,
      "ĠScot": 7678,
      "RI": 7679,
      "Ġicon": 7680,
      "Ġhidden": 7681,
      "Ġcontributing": 7682,
      "Ġhouses": 7683,
      "Ġlaunched": 7684,
      "zech": 7685,
      "Ġpositions": 7686,
      "scription": 7687,
      "Ġdelivery": 7688,
      "Ġwitness": 7689,
      "fulness": 7690,
      "ĠCreat": 7691,
      "extra": 7692,
      "Ġassets": 7693,
      "ĠStudents": 7694,
      "ogether": 7695,
      "Ġmorning": 7696,
      "Ġleague": 7697,
      "sid": 7698,
      "Ġadministration": 7699,
      "inity": 7700,
      "compute": 7701,
      "Ġrely": 7702,
      "Ġlose": 7703,
      "scope": 7704,
      "################################################################": 7705,
      "Ġstd": 7706,
      "Ã³n": 7707,
      "after": 7708,
      "Ġstake": 7709,
      "Ġscene": 7710,
      "future": 7711,
      ")\"": 7712,
      "users": 7713,
      "ĠUk": 7714,
      "ĠGeorg": 7715,
      "Ġtheme": 7716,
      "Ġcapable": 7717,
      "Go": 7718,
      "ĠNews": 7719,
      "press": 7720,
      "Ġwx": 7721,
      "Ġanalyze": 7722,
      "First": 7723,
      "Rel": 7724,
      "ocument": 7725,
      "Ġbutton": 7726,
      "ione": 7727,
      "Ġcomfortable": 7728,
      "Ġheard": 7729,
      "83": 7730,
      "Ġoccurred": 7731,
      "Ġinitiatives": 7732,
      "Ġabilities": 7733,
      "bur": 7734,
      "Ġathlet": 7735,
      "unique": 7736,
      "Ġheritage": 7737,
      "ĠArgs": 7738,
      "Ġstick": 7739,
      "ume": 7740,
      "Ġmir": 7741,
      "ĠLim": 7742,
      "Ġsport": 7743,
      "umni": 7744,
      "ĠMult": 7745,
      "Address": 7746,
      "ĠStudies": 7747,
      "ERR": 7748,
      "ĠCast": 7749,
      "Ġcoffee": 7750,
      "Ġmixed": 7751,
      "Ġmechanisms": 7752,
      "Ġchosen": 7753,
      "Ġroof": 7754,
      "Ġauthorities": 7755,
      "#!": 7756,
      "ĠVictor": 7757,
      "Ġ'__": 7758,
      "Ġtrained": 7759,
      "Ġvaccine": 7760,
      "Ġleaf": 7761,
      "rav": 7762,
      "ĠAnother": 7763,
      "Ġlaunch": 7764,
      "ĠLog": 7765,
      ".'": 7766,
      "Ġproducing": 7767,
      "ĠMiddle": 7768,
      "Ġagent": 7769,
      "Ġmarine": 7770,
      "Ġinject": 7771,
      "ĠNote": 7772,
      "Ġsummary": 7773,
      "Ġsql": 7774,
      "ĠIndust": 7775,
      "LA": 7776,
      "oven": 7777,
      "Ġdrawing": 7778,
      "Ġdefine": 7779,
      "Most": 7780,
      "Ġ1996": 7781,
      "Ġtaught": 7782,
      "bool": 7783,
      "OP": 7784,
      "Mem": 7785,
      "ĠField": 7786,
      "Ġtimeout": 7787,
      "ĠHenry": 7788,
      "Ġtro": 7789,
      "ĠGames": 7790,
      "Ġguarant": 7791,
      "Ġdie": 7792,
      "osh": 7793,
      "plates": 7794,
      "Ġstable": 7795,
      "ĠSea": 7796,
      "Ġlimits": 7797,
      "Ġmort": 7798,
      "ĠCall": 7799,
      "ernel": 7800,
      "END": 7801,
      "Ġbgcolor": 7802,
      "mic": 7803,
      "Ġsrc": 7804,
      "Ġgene": 7805,
      "Ġloop": 7806,
      "ĠWhy": 7807,
      "Ġfelt": 7808,
      "ĠCommand": 7809,
      "ĠOnly": 7810,
      "Ġhash": 7811,
      "Ġtechnological": 7812,
      "Ġhealing": 7813,
      "zen": 7814,
      "eting": 7815,
      "ĠMinister": 7816,
      "Med": 7817,
      "Ġsocket": 7818,
      "Ġextent": 7819,
      "Parser": 7820,
      "Ġexcessive": 7821,
      "Ġnaturally": 7822,
      "schema": 7823,
      "ĉĉĉĉĉ": 7824,
      "Ġfaced": 7825,
      "Ġdecrease": 7826,
      "ĠTom": 7827,
      "Ġinstructions": 7828,
      "Meta": 7829,
      "ki": 7830,
      "rolog": 7831,
      "Ġdataset": 7832,
      "Ġindicates": 7833,
      "limit": 7834,
      "arn": 7835,
      "public": 7836,
      "Ġswim": 7837,
      "Ġcrop": 7838,
      "Ġmuseum": 7839,
      "Ġconcrete": 7840,
      "Ġboundaries": 7841,
      "ĠPak": 7842,
      "ervices": 7843,
      "Ġpsychological": 7844,
      "Layout": 7845,
      "iday": 7846,
      "Ġidentifying": 7847,
      "Ġfigures": 7848,
      "Ġlargely": 7849,
      "NS": 7850,
      "uality": 7851,
      "ĠProcess": 7852,
      "annot": 7853,
      "Ġimplications": 7854,
      "Ġ1998": 7855,
      "cursor": 7856,
      "Ġ',": 7857,
      "ĠLib": 7858,
      "forcement": 7859,
      "iler": 7860,
      "Ġmere": 7861,
      "Ġaqu": 7862,
      "Ġtransmission": 7863,
      "ady": 7864,
      "Ġinteractive": 7865,
      "Ġfabric": 7866,
      "Ġbehaviour": 7867,
      "Ġhousing": 7868,
      "ĠST": 7869,
      "Ġcrops": 7870,
      "uh": 7871,
      "igma": 7872,
      "Ġbreathing": 7873,
      "Ġminimize": 7874,
      "Ġconsidering": 7875,
      "ĠAlbert": 7876,
      "ett": 7877,
      "amins": 7878,
      "changed": 7879,
      "kes": 7880,
      "Ġproductivity": 7881,
      "heast": 7882,
      "Ġtea": 7883,
      "lick": 7884,
      "ĉĊ": 7885,
      "Ġfoss": 7886,
      "////": 7887,
      "ĠNorthern": 7888,
      "Ġcompat": 7889,
      "Ġacknow": 7890,
      "Ġexpertise": 7891,
      "_(": 7892,
      "Ġstars": 7893,
      "HD": 7894,
      "Ġ1000": 7895,
      "Ġradiation": 7896,
      "izers": 7897,
      "ugby": 7898,
      "ading": 7899,
      "ropical": 7900,
      "Ġcycl": 7901,
      "Ġbatteries": 7902,
      "aped": 7903,
      "Ġconscious": 7904,
      "ĠStep": 7905,
      "FOR": 7906,
      "Ġimplementing": 7907,
      "Ġcontemporary": 7908,
      "Ġnor": 7909,
      "Ġcos": 7910,
      "font": 7911,
      "claim": 7912,
      "seq": 7913,
      "Ġextension": 7914,
      "Ġattr": 7915,
      "Ġtoler": 7916,
      "icago": 7917,
      "ĠRichard": 7918,
      "Ġtab": 7919,
      "Ġ'',": 7920,
      "eries": 7921,
      "Ġtraditions": 7922,
      "ĠHome": 7923,
      "Source": 7924,
      "Ġsatell": 7925,
      "agent": 7926,
      "Ġ</": 7927,
      "validate": 7928,
      "this": 7929,
      "Am": 7930,
      "asy": 7931,
      "Ġdebug": 7932,
      "(__": 7933,
      "aria": 7934,
      "ABILITY": 7935,
      "Ġconcentration": 7936,
      "ĠTim": 7937,
      "96": 7938,
      "Ġportion": 7939,
      "Ġlun": 7940,
      "Equals": 7941,
      "=['": 7942,
      "Ġment": 7943,
      "aining": 7944,
      "person": 7945,
      "ĠBur": 7946,
      "roat": 7947,
      "Ġ\".": 7948,
      "ĠOh": 7949,
      "Ġexistence": 7950,
      "Ġfilled": 7951,
      "ĠVirginia": 7952,
      "ĠEmpire": 7953,
      "Ġdiscovery": 7954,
      "Ġarmy": 7955,
      "Ġenumerate": 7956,
      "elihood": 7957,
      "ĠAnn": 7958,
      "ĠColor": 7959,
      "ĠAtlant": 7960,
      "Ġdomin": 7961,
      "duce": 7962,
      "Ġaccum": 7963,
      "ĠĠĠĠĠĠĠĠĠĠĠĠĠĠĠĠĠĠĠĠĠĠĠĠĠĠĠĠĠĠĠĠĠĠ": 7964,
      "egin": 7965,
      "efits": 7966,
      "Ġsubstance": 7967,
      "Ġgap": 7968,
      "Ġaccepted": 7969,
      "ĠEns": 7970,
      "Gl": 7971,
      "Ġfrag": 7972,
      "Ġcorrectly": 7973,
      "Ġpaid": 7974,
      "Ġcamera": 7975,
      "Ġspecialized": 7976,
      "Ġmand": 7977,
      "Ġtypical": 7978,
      "Ġrows": 7979,
      "Ġdiscipl": 7980,
      "ĠWindow": 7981,
      "Ġrub": 7982,
      "Ġsweet": 7983,
      "CK": 7984,
      "Ġflavor": 7985,
      "Ġsessions": 7986,
      "Ġinstances": 7987,
      "Ġcollections": 7988,
      "Ġagreement": 7989,
      "render": 7990,
      "Ġcomposition": 7991,
      "ĠDespite": 7992,
      "Ġpregnancy": 7993,
      "Ġxml": 7994,
      "sts": 7995,
      "~~~~": 7996,
      "ACT": 7997,
      "Ġfre": 7998,
      "Ġgod": 7999,
      "hyth": 8000,
      "Ġingredients": 8001,
      "ĠWil": 8002,
      "ĠProper": 8003,
      "WAR": 8004,
      "Ġpursu": 8005,
      "ĠName": 8006,
      "Ġrevealed": 8007,
      "Ġauto": 8008,
      "ride": 8009,
      "Ġwaters": 8010,
      "Ġkil": 8011,
      "({'": 8012,
      "decode": 8013,
      "Ġflexibility": 8014,
      "Ġfav": 8015,
      "even": 8016,
      "Stud": 8017,
      "matrix": 8018,
      "asts": 8019,
      "ĠKnow": 8020,
      "ĠRecords": 8021,
      "Ġdoll": 8022,
      "Ġdistingu": 8023,
      "Ġefficiently": 8024,
      "onia": 8025,
      "Implement": 8026,
      "racy": 8027,
      "ĠHaw": 8028,
      "hus": 8029,
      "ĠEst": 8030,
      "timestamp": 8031,
      "Ġtensor": 8032,
      "Ġdensity": 8033,
      "Ġzip": 8034,
      "PATH": 8035,
      "Ġfocuses": 8036,
      "Color": 8037,
      "ĠLike": 8038,
      "buffer": 8039,
      "Ġclaims": 8040,
      "Ġshapes": 8041,
      "ĠRights": 8042,
      "custom": 8043,
      "home": 8044,
      "Ġdram": 8045,
      "BO": 8046,
      "ching": 8047,
      "ycle": 8048,
      "overty": 8049,
      "factory": 8050,
      "ĠCommittee": 8051,
      "Ġsurvival": 8052,
      "Ġderived": 8053,
      "Ġsales": 8054,
      "people": 8055,
      "Are": 8056,
      "ĠSpe": 8057,
      "ĠSil": 8058,
      "Ġsucceed": 8059,
      "Number": 8060,
      "Ġinsects": 8061,
      "enter": 8062,
      "MD": 8063,
      "Don": 8064,
      "Ġtags": 8065,
      "Ġsnow": 8066,
      "Ġparticipate": 8067,
      "ĠRail": 8068,
      "health": 8069,
      "cluding": 8070,
      "itivity": 8071,
      "orrow": 8072,
      "Ġbrown": 8073,
      "Fin": 8074,
      "Ġrelief": 8075,
      "pathy": 8076,
      "coin": 8077,
      "erving": 8078,
      "Ġtum": 8079,
      "keep": 8080,
      "Ġtargets": 8081,
      "Down": 8082,
      "Ġwriters": 8083,
      "ĠHand": 8084,
      "cfg": 8085,
      "Ġcorner": 8086,
      "Ġevaluate": 8087,
      "Mon": 8088,
      "gien": 8089,
      "Ġrespir": 8090,
      "Ġpig": 8091,
      "Ġeveryday": 8092,
      "Ġprecise": 8093,
      "Ġfourth": 8094,
      "Ġregister": 8095,
      "iodiversity": 8096,
      "Ġversions": 8097,
      "Ġfrequent": 8098,
      "Ġnations": 8099,
      "IND": 8100,
      "Input": 8101,
      "Ġdrain": 8102,
      "Ġsuffering": 8103,
      "ĠBig": 8104,
      "TI": 8105,
      "Ġgam": 8106,
      "ĠSouthern": 8107,
      "Ġvulnerable": 8108,
      "igure": 8109,
      "Ġinfluenced": 8110,
      "SER": 8111,
      "Ġshop": 8112,
      "rule": 8113,
      "Ġshif": 8114,
      "Ġfunctional": 8115,
      "ĠProgram": 8116,
      "irmed": 8117,
      "Ġmillions": 8118,
      "asters": 8119,
      "Ġdomestic": 8120,
      "SO": 8121,
      "opes": 8122,
      "construct": 8123,
      "category": 8124,
      "ĠMa": 8125,
      "End": 8126,
      "upp": 8127,
      "ji": 8128,
      "'})": 8129,
      "Ġfocusing": 8130,
      "Ke": 8131,
      "Ġpull": 8132,
      "oxide": 8133,
      "pattern": 8134,
      "ĠSaint": 8135,
      "Ġminerals": 8136,
      "Ġmanual": 8137,
      "Ġfunds": 8138,
      "ĠUt": 8139,
      "ĠJoseph": 8140,
      "Ġcircumstances": 8141,
      "ĠMo": 8142,
      "aven": 8143,
      "ĠLu": 8144,
      "Ġorg": 8145,
      "fast": 8146,
      "iki": 8147,
      "Ġtruly": 8148,
      "exist": 8149,
      "Ġaccompl": 8150,
      "Head": 8151,
      "ĠBoston": 8152,
      "ACK": 8153,
      "ĠConsider": 8154,
      "Ġgrown": 8155,
      "Ġwave": 8156,
      "Ġnit": 8157,
      "Ġsenior": 8158,
      "ĠLatin": 8159,
      "Ġproteins": 8160,
      "Ġtor": 8161,
      "Ġwidget": 8162,
      "Ġfra": 8163,
      "!!": 8164,
      "named": 8165,
      "Ġstrategic": 8166,
      "bles": 8167,
      "Ġphr": 8168,
      "Ġ1950": 8169,
      "Dec": 8170,
      "Main": 8171,
      "cap": 8172,
      "98": 8173,
      "onomy": 8174,
      "Ġlicense": 8175,
      "Ġentity": 8176,
      "bing": 8177,
      "ĠBusiness": 8178,
      "pread": 8179,
      "Ġsell": 8180,
      "Ġinstruction": 8181,
      "mac": 8182,
      "Ġreward": 8183,
      "Ġthrive": 8184,
      "={'": 8185,
      "oral": 8186,
      "Ġchol": 8187,
      "Ġassigned": 8188,
      "card": 8189,
      "opts": 8190,
      "2000": 8191,
      "outs": 8192,
      "Ġapart": 8193,
      "Ġ300": 8194,
      "hyd": 8195,
      "Ġgained": 8196,
      "ĠEnvironmental": 8197,
      "nan": 8198,
      "Ġadvent": 8199,
      "Ġcart": 8200,
      "Ġnearby": 8201,
      "ĠIrish": 8202,
      "raises": 8203,
      "SL": 8204,
      "Ġreader": 8205,
      "iencing": 8206,
      "Content": 8207,
      "Ġaccident": 8208,
      "Ġdrivers": 8209,
      "Min": 8210,
      "Ġapps": 8211,
      "Ġhasattr": 8212,
      "ĠMah": 8213,
      "ĠSpecial": 8214,
      "ĠJud": 8215,
      "Ġsurfaces": 8216,
      "ĠTop": 8217,
      "ĠSqu": 8218,
      "Ġrough": 8219,
      "Ġletters": 8220,
      "Ġprinting": 8221,
      "LECT": 8222,
      "Ġupdates": 8223,
      "Ġhtml": 8224,
      "dirname": 8225,
      "ificate": 8226,
      "ĠOffice": 8227,
      "ĠMr": 8228,
      "Ġcircuit": 8229,
      "icted": 8230,
      "ĠVersion": 8231,
      "Ġstatic": 8232,
      "Ġobtained": 8233,
      "Ġinhabit": 8234,
      "erman": 8235,
      "97": 8236,
      "oles": 8237,
      "Ġsupplement": 8238,
      "\"}": 8239,
      "Ġdecline": 8240,
      "activ": 8241,
      "writer": 8242,
      "wing": 8243,
      "va": 8244,
      "Ġdepart": 8245,
      "ĠDirector": 8246,
      "Ġstrict": 8247,
      "gramm": 8248,
      "Ġmountain": 8249,
      "hat": 8250,
      "Ġscal": 8251,
      "Ġinitially": 8252,
      "ĠBudd": 8253,
      "Sign": 8254,
      "ĠInformation": 8255,
      "Ġreligion": 8256,
      "Code": 8257,
      "ä¸": 8258,
      "storage": 8259,
      "Ġresolution": 8260,
      "Ġdemands": 8261,
      "#!/": 8262,
      "nn": 8263,
      "Ġcouple": 8264,
      "Ġgirls": 8265,
      "Ġpartnership": 8266,
      "Ġended": 8267,
      "That": 8268,
      "package": 8269,
      "aml": 8270,
      "Property": 8271,
      "policy": 8272,
      "isters": 8273,
      "eek": 8274,
      "Ġweap": 8275,
      "rene": 8276,
      "ellect": 8277,
      "stat": 8278,
      "Ġaudio": 8279,
      "ĠPacific": 8280,
      "ĠLine": 8281,
      "'ve": 8282,
      "ĠSupport": 8283,
      "Ġprotecting": 8284,
      "Ġattend": 8285,
      "Ġchief": 8286,
      "idespread": 8287,
      "Ġevaluation": 8288,
      "Em": 8289,
      "rooms": 8290,
      "egu": 8291,
      "Ġuniversity": 8292,
      "Ġenhances": 8293,
      "Ġseasons": 8294,
      "images": 8295,
      "Ġintegrated": 8296,
      "Ġabsolute": 8297,
      "Ġcomputing": 8298,
      "Invalid": 8299,
      "Ġelectro": 8300,
      "Ġinputs": 8301,
      "Ġsensors": 8302,
      "Ġcallback": 8303,
      "Ġtested": 8304,
      "ittle": 8305,
      "prop": 8306,
      "environ": 8307,
      "Ġ1997": 8308,
      "Ġorganized": 8309,
      "English": 8310,
      "ĠTimes": 8311,
      "Ġimmun": 8312,
      "Ġblockchain": 8313,
      "Ġsed": 8314,
      "Ġsubstances": 8315,
      "Ġtal": 8316,
      "Ġformal": 8317,
      "har": 8318,
      "ĠWood": 8319,
      "Ġversat": 8320,
      "itan": 8321,
      "Ġcursor": 8322,
      "Ġfurn": 8323,
      "Ġentertain": 8324,
      "Ġanalyt": 8325,
      "asketball": 8326,
      "inson": 8327,
      "ĠĠĠĠĠĠĠĠĠĠĠĠĠĠĠĠĠĠĠĠĠĠĠĠĠĠĠĠĠĠĠĠĠĠĠĠ": 8328,
      "ĠNations": 8329,
      "Ġwestern": 8330,
      "Ġsides": 8331,
      "Ġapplicable": 8332,
      "hab": 8333,
      "ometimes": 8334,
      "iability": 8335,
      "Ġreactions": 8336,
      "Ġfeatured": 8337,
      "assertEquals": 8338,
      "Ġstudying": 8339,
      "iana": 8340,
      "ĠLibrary": 8341,
      "ivalent": 8342,
      "gi": 8343,
      "ĠInf": 8344,
      "NE": 8345,
      "exc": 8346,
      "ĠMichigan": 8347,
      "Ġtur": 8348,
      "Ġunion": 8349,
      "Ġlin": 8350,
      "Ġbroken": 8351,
      "Ġprocessed": 8352,
      "Ġempower": 8353,
      "Ġtx": 8354,
      "span": 8355,
      "Ġwinning": 8356,
      "dden": 8357,
      "primary": 8358,
      "ĠBlue": 8359,
      "Ġgreatly": 8360,
      "Ġmanip": 8361,
      "Ġunable": 8362,
      "Ġreput": 8363,
      "Ġdifficulty": 8364,
      "Ġpars": 8365,
      "Ġcolour": 8366,
      "Ġmarkets": 8367,
      "atre": 8368,
      "Ġrepresenting": 8369,
      "enabled": 8370,
      "ÑĤ": 8371,
      "Valid": 8372,
      "Ġadds": 8373,
      "Ġintegrity": 8374,
      "zeros": 8375,
      "depth": 8376,
      "Ġneighbor": 8377,
      "Factory": 8378,
      "Ġnarrow": 8379,
      "iro": 8380,
      "ĠLos": 8381,
      "Ġthemes": 8382,
      "Ġ2024": 8383,
      "Ġtank": 8384,
      "Process": 8385,
      "global": 8386,
      "ĠCamb": 8387,
      "Ġfacts": 8388,
      "messages": 8389,
      "ipal": 8390,
      "Ġmining": 8391,
      "Ġindependence": 8392,
      "ema": 8393,
      "Core": 8394,
      "ĠGal": 8395,
      "STR": 8396,
      "Ġmarriage": 8397,
      "uten": 8398,
      "Ġwindows": 8399,
      "Ġmapping": 8400,
      "à¤¾": 8401,
      "Ġautomatically": 8402,
      "Ð½": 8403,
      "wan": 8404,
      "dig": 8405,
      "mir": 8406,
      "Ġpossess": 8407,
      "ĠFort": 8408,
      "uan": 8409,
      "Ġnutrient": 8410,
      "()[": 8411,
      "break": 8412,
      "Ġpanel": 8413,
      "Ġduration": 8414,
      "Ġ\",": 8415,
      "Ġintroduction": 8416,
      "Ġships": 8417,
      "Ġactor": 8418,
      "hs": 8419,
      "Ġbiological": 8420,
      "ĠAvoid": 8421,
      "ĠLook": 8422,
      "Ġsunlight": 8423,
      "rape": 8424,
      "Ġagencies": 8425,
      "Ġ1992": 8426,
      "ĠDom": 8427,
      "Ġnewsp": 8428,
      "Ġdisk": 8429,
      "Ġpup": 8430,
      "Block": 8431,
      "Ġmassive": 8432,
      "Ġentirely": 8433,
      "extend": 8434,
      "short": 8435,
      "Ġthr": 8436,
      "ÑĢ": 8437,
      "Ġtwice": 8438,
      "ĠDen": 8439,
      "Ġcombat": 8440,
      "Ġbroader": 8441,
      "Server": 8442,
      "Ġchoosing": 8443,
      "2010": 8444,
      "Ġbeliefs": 8445,
      "ĠHT": 8446,
      "riev": 8447,
      "leg": 8448,
      "Ġunicode": 8449,
      "Ġrepeated": 8450,
      "ifiers": 8451,
      "sur": 8452,
      "Ġangle": 8453,
      "Ext": 8454,
      "Ġadopted": 8455,
      "Met": 8456,
      "Ġprinciple": 8457,
      "ĠAuthor": 8458,
      "raging": 8459,
      "Update": 8460,
      "Ġcorresponding": 8461,
      "Ġvideos": 8462,
      "Ġhydro": 8463,
      "Mus": 8464,
      "ĠKar": 8465,
      "iddleware": 8466,
      "ĠSuch": 8467,
      "ĠChicago": 8468,
      "Ġlearners": 8469,
      "mes": 8470,
      "ulin": 8471,
      "attribute": 8472,
      "Ġcoverage": 8473,
      "ĠPass": 8474,
      "ventions": 8475,
      "contin": 8476,
      "ĠTeam": 8477,
      "Ġstyles": 8478,
      "IB": 8479,
      "pet": 8480,
      "Ġ35": 8481,
      "stood": 8482,
      "Ġpray": 8483,
      "Ġwidespread": 8484,
      "Ġexpansion": 8485,
      "Ġaddresses": 8486,
      "itz": 8487,
      "ithub": 8488,
      "Ne": 8489,
      "ĠDise": 8490,
      "classmethod": 8491,
      "Ġcash": 8492,
      "Ġble": 8493,
      "Ġsudden": 8494,
      "Ġshut": 8495,
      "Ġmild": 8496,
      "ateway": 8497,
      "Ġdoor": 8498,
      "Ġratio": 8499,
      "ĠSpain": 8500,
      "UD": 8501,
      "rl": 8502,
      "edit": 8503,
      "ĠRock": 8504,
      "ASA": 8505,
      "lishing": 8506,
      "Ġwalking": 8507,
      "iano": 8508,
      "><": 8509,
      "Ġastr": 8510,
      "itud": 8511,
      "ĠPers": 8512,
      "Ġecosystems": 8513,
      "ĠCzech": 8514,
      "ĠNavy": 8515,
      "ĠOrder": 8516,
      "iders": 8517,
      "Ġpermanent": 8518,
      "Ġawarded": 8519,
      "Bar": 8520,
      "Ġclients": 8521,
      "ĠValley": 8522,
      "llib": 8523,
      "Ġcovers": 8524,
      "ĠPoint": 8525,
      "':'": 8526,
      "Ġrepro": 8527,
      "pring": 8528,
      "Ġdispos": 8529,
      "Ġforests": 8530,
      "tool": 8531,
      "Ġentered": 8532,
      "Sm": 8533,
      "idential": 8534,
      "Ġrecycling": 8535,
      "ĠGard": 8536,
      "ĠHy": 8537,
      "Ġcluster": 8538,
      "Ġwarning": 8539,
      "pu": 8540,
      "async": 8541,
      "ĠExt": 8542,
      "ĠPo": 8543,
      "oted": 8544,
      "Ġpd": 8545,
      "Column": 8546,
      "Hel": 8547,
      "VAL": 8548,
      "abul": 8549,
      "Ġhappy": 8550,
      "Ġmechanical": 8551,
      "Ġdamaged": 8552,
      "reset": 8553,
      "Ġhydrogen": 8554,
      "Å¡": 8555,
      "Ġsuggested": 8556,
      "Auto": 8557,
      "Ġalongside": 8558,
      "Ġcommission": 8559,
      "ĠProfessor": 8560,
      "virt": 8561,
      "('\\": 8562,
      "Cal": 8563,
      "git": 8564,
      "Ġnine": 8565,
      "EP": 8566,
      "Ġbrings": 8567,
      "ĠAccess": 8568,
      "ĠMill": 8569,
      "dt": 8570,
      "Ġtaste": 8571,
      "Ġencoding": 8572,
      "sleep": 8573,
      "Ġtack": 8574,
      "high": 8575,
      "94": 8576,
      "ĠLight": 8577,
      "agues": 8578,
      "supp": 8579,
      "Ġ'<": 8580,
      "Ġrecommendations": 8581,
      "ouble": 8582,
      "Ġmechanism": 8583,
      "Let": 8584,
      "reated": 8585,
      "ĠRet": 8586,
      "Play": 8587,
      "Ġstatistics": 8588,
      "LOG": 8589,
      "directory": 8590,
      "Ġpainting": 8591,
      "Ġdust": 8592,
      "Ġgall": 8593,
      "Ġcomputers": 8594,
      "Ġlighting": 8595,
      "Ġcompounds": 8596,
      "orph": 8597,
      "ulpt": 8598,
      "aws": 8599,
      "Ġexperiencing": 8600,
      "Ġquantum": 8601,
      "ĠCross": 8602,
      "Ġ1994": 8603,
      "google": 8604,
      "Ġfarming": 8605,
      "Ġalert": 8606,
      "Ġours": 8607,
      "')),": 8608,
      "Ġpersonnel": 8609,
      "Ġpiv": 8610,
      "Ġessay": 8611,
      "Ġinvolving": 8612,
      "Ġfacing": 8613,
      "Ġrivers": 8614,
      "Ġcomprom": 8615,
      "anches": 8616,
      "warning": 8617,
      "ĠRome": 8618,
      "azz": 8619,
      "ĠMoreover": 8620,
      "Ġfeeding": 8621,
      "Ġtrigger": 8622,
      "Ġrect": 8623,
      "ĠTake": 8624,
      "Ġrig": 8625,
      "Ġincred": 8626,
      "Ġinspir": 8627,
      "iotics": 8628,
      "Ġpersonalized": 8629,
      "Pos": 8630,
      "mond": 8631,
      "zip": 8632,
      "ĠCommunity": 8633,
      "Ġinstruments": 8634,
      "Prov": 8635,
      "ĠMen": 8636,
      "ĠCode": 8637,
      "Ġextend": 8638,
      "93": 8639,
      "Ġscan": 8640,
      "ĠString": 8641,
      "ĠArts": 8642,
      "ĠFederal": 8643,
      "Str": 8644,
      "Ġancest": 8645,
      "Ġcommands": 8646,
      "endar": 8647,
      "Ġkinds": 8648,
      "Ġsoldiers": 8649,
      "Your": 8650,
      "pm": 8651,
      "ĠQuest": 8652,
      "Ġinspect": 8653,
      "ĠReview": 8654,
      "(?": 8655,
      "Ġexplo": 8656,
      "Ġlesson": 8657,
      "Ġconfirm": 8658,
      "Page": 8659,
      "Ġhoriz": 8660,
      "Ġhealthier": 8661,
      "ĠMedicine": 8662,
      "Ġcategories": 8663,
      "ingly": 8664,
      "Ġtub": 8665,
      "inx": 8666,
      "Yes": 8667,
      "irs": 8668,
      "esterol": 8669,
      "Ġbroadcast": 8670,
      "CI": 8671,
      "Ġdestination": 8672,
      "Ġheating": 8673,
      "Ġmanufacturers": 8674,
      "Context": 8675,
      "ĠPop": 8676,
      "ENSE": 8677,
      "ĠComput": 8678,
      "Use": 8679,
      "ĠMax": 8680,
      "sequence": 8681,
      "ĠVari": 8682,
      "Dr": 8683,
      "omach": 8684,
      "Ġvessels": 8685,
      "sim": 8686,
      "Ġattach": 8687,
      "drop": 8688,
      "Ġissued": 8689,
      "nce": 8690,
      "oga": 8691,
      "ĠFurthermore": 8692,
      "Ġbio": 8693,
      "ĠWell": 8694,
      "DEFAULT": 8695,
      "Ġcrime": 8696,
      "norm": 8697,
      "ĠMartin": 8698,
      "Ġcharacterized": 8699,
      "ĠStar": 8700,
      "Ġtransactions": 8701,
      "Ġfoster": 8702,
      "PU": 8703,
      ")/": 8704,
      "MB": 8705,
      "inking": 8706,
      "Ġescape": 8707,
      "CB": 8708,
      "Ġsizes": 8709,
      "Ġcenters": 8710,
      "Ġsoc": 8711,
      "ĠMot": 8712,
      "Ġconstructed": 8713,
      "Ġexplains": 8714,
      "compass": 8715,
      "ponents": 8716,
      "Ġofficials": 8717,
      "uating": 8718,
      "Ġ400": 8719,
      "Once": 8720,
      "safe": 8721,
      "ĠPet": 8722,
      "Ġembed": 8723,
      "Av": 8724,
      "AND": 8725,
      "connected": 8726,
      "Ġpermissions": 8727,
      "charge": 8728,
      "Ġstructural": 8729,
      "Ġtear": 8730,
      "Ġages": 8731,
      "ĠRegion": 8732,
      "Ġflo": 8733,
      "Ġcomplications": 8734,
      "Ġuid": 8735,
      "Ġcrow": 8736,
      "parts": 8737,
      "Ġenthus": 8738,
      "kind": 8739,
      "Ġquarter": 8740,
      "itutional": 8741,
      "Ġlatter": 8742,
      "ĠCur": 8743,
      "ĠAdminist": 8744,
      "Ġdevelopers": 8745,
      "Ġsin": 8746,
      "Ġalter": 8747,
      "Ġvisitors": 8748,
      "Ġatom": 8749,
      "ĠSummer": 8750,
      "Ġspending": 8751,
      "Ġirrit": 8752,
      "Ġvm": 8753,
      "Ġvitamins": 8754,
      "||": 8755,
      "ili": 8756,
      "amps": 8757,
      "Result": 8758,
      "DR": 8759,
      "Ġcommitted": 8760,
      "dr": 8761,
      "Ġcomposed": 8762,
      "Ġpreferences": 8763,
      "Ġreject": 8764,
      "Ġintricate": 8765,
      "Ġcentre": 8766,
      "Ġprominent": 8767,
      "Ġachieving": 8768,
      "lan": 8769,
      "Ġspeaking": 8770,
      "ĠHill": 8771,
      "arios": 8772,
      "Ġ1995": 8773,
      ",,": 8774,
      "LIC": 8775,
      "Ġpermission": 8776,
      "Ġtried": 8777,
      "Ġloved": 8778,
      "Ġhonor": 8779,
      "eras": 8780,
      "Äį": 8781,
      "Exp": 8782,
      "orous": 8783,
      "Ġdepartment": 8784,
      "uint": 8785,
      "hook": 8786,
      "Ġthin": 8787,
      "Ġgradually": 8788,
      "Ġconstit": 8789,
      "yal": 8790,
      "ĠRevolution": 8791,
      "Ġmenu": 8792,
      "sets": 8793,
      "Ġinterview": 8794,
      "Ġactively": 8795,
      "Ġexplained": 8796,
      "Ġsubstantial": 8797,
      "png": 8798,
      "cuss": 8799,
      "Ġshoot": 8800,
      "Ġwarrant": 8801,
      "ressive": 8802,
      "Ġsharp": 8803,
      "ocracy": 8804,
      "cm": 8805,
      "oster": 8806,
      "Ġmeasured": 8807,
      "ĠEth": 8808,
      "Array": 8809,
      "Ġsections": 8810,
      "Ġadequate": 8811,
      "Ġadvert": 8812,
      "Ġaccommod": 8813,
      "kw": 8814,
      "release": 8815,
      "cb": 8816,
      "ĠServices": 8817,
      "ĠJews": 8818,
      "HTTP": 8819,
      "Mult": 8820,
      "series": 8821,
      "Ġstrengthen": 8822,
      "Ġtells": 8823,
      "ulty": 8824,
      "Ġban": 8825,
      "ĠBrown": 8826,
      "Ġpure": 8827,
      "Ġcloser": 8828,
      "Ġpit": 8829,
      "Ġdates": 8830,
      "Ġcards": 8831,
      "apse": 8832,
      "Ġconventional": 8833,
      "Ġoverw": 8834,
      "olumes": 8835,
      "ented": 8836,
      "scrib": 8837,
      "Current": 8838,
      "Ġfascinating": 8839,
      "Ġgenes": 8840,
      "ĠSecret": 8841,
      "92": 8842,
      "Ġarrest": 8843,
      "container": 8844,
      "Ã±": 8845,
      "Ġfewer": 8846,
      "Ġconcerned": 8847,
      "Ġfeat": 8848,
      "Ġacids": 8849,
      "igue": 8850,
      "Ġavailability": 8851,
      "Ġaffecting": 8852,
      "itual": 8853,
      "Ġemployed": 8854,
      "Ġpun": 8855,
      "ograp": 8856,
      "Ġaer": 8857,
      "Ġinstallation": 8858,
      "ĠEU": 8859,
      "Since": 8860,
      "Ġhighlights": 8861,
      "Ġengaged": 8862,
      "bad": 8863,
      "utive": 8864,
      "pytest": 8865,
      "ĠBack": 8866,
      "repo": 8867,
      "Ġsilver": 8868,
      "Ġverify": 8869,
      "hist": 8870,
      "election": 8871,
      "Ġusername": 8872,
      "giene": 8873,
      "Ġmaps": 8874,
      "raine": 8875,
      "Ġcompare": 8876,
      "Ġdance": 8877,
      "Ġpreparation": 8878,
      "gments": 8879,
      "Ġcompetitive": 8880,
      "à¥į": 8881,
      "serve": 8882,
      "DateTime": 8883,
      "isted": 8884,
      "Ġoutdoor": 8885,
      "Ġdesire": 8886,
      "brid": 8887,
      "Early": 8888,
      "91": 8889,
      "Ġdebt": 8890,
      "ĠConfig": 8891,
      "Ġcontamin": 8892,
      "Ġpartners": 8893,
      "ĠCard": 8894,
      "classes": 8895,
      "Ġelectron": 8896,
      "Ġovercome": 8897,
      "children": 8898,
      "Ġvac": 8899,
      "Ġbatt": 8900,
      "ĠMethod": 8901,
      "raints": 8902,
      "features": 8903,
      "aved": 8904,
      "dot": 8905,
      "Ġpoverty": 8906,
      "ĠWindows": 8907,
      "ĠCentre": 8908,
      "Ġminimal": 8909,
      "obs": 8910,
      "Ġobvious": 8911,
      "ĠJe": 8912,
      "Ġdecide": 8913,
      "Ġdiscussed": 8914,
      "Ġtranslation": 8915,
      "RES": 8916,
      "rick": 8917,
      "WS": 8918,
      "Ġsubprocess": 8919,
      "ĠYoung": 8920,
      "everal": 8921,
      "ylvan": 8922,
      "initial": 8923,
      "Ġ45": 8924,
      "Ġ_('": 8925,
      "dataset": 8926,
      "outer": 8927,
      "Det": 8928,
      "ĠForest": 8929,
      "Ġparticipation": 8930,
      "Ġbones": 8931,
      "ĠDefault": 8932,
      "Ġcontrols": 8933,
      "ioxid": 8934,
      "Ġpeak": 8935,
      "Ġ1991": 8936,
      "Ġfacility": 8937,
      "rovers": 8938,
      "ĠEastern": 8939,
      "ĠReport": 8940,
      "00000000": 8941,
      "Ġreceiving": 8942,
      "ĠNig": 8943,
      "Ġchannels": 8944,
      "Ġcrack": 8945,
      "ERS": 8946,
      "Ġlisten": 8947,
      "route": 8948,
      "ĠEarly": 8949,
      "repr": 8950,
      "Ġlayout": 8951,
      "Ġoperational": 8952,
      "ORD": 8953,
      "ĠWales": 8954,
      "Ġalgorithm": 8955,
      "Ġincorporating": 8956,
      "month": 8957,
      "tools": 8958,
      "Ġcooking": 8959,
      "ĠAsian": 8960,
      "Ġcontributions": 8961,
      "front": 8962,
      "Ġends": 8963,
      "Ġowned": 8964,
      "ĠTre": 8965,
      "Ġstrings": 8966,
      "best": 8967,
      "Ġemployment": 8968,
      "Ġengineers": 8969,
      "Ġmeaningful": 8970,
      "ĠLOG": 8971,
      "Ġabund": 8972,
      "attrs": 8973,
      "kins": 8974,
      "Before": 8975,
      "UE": 8976,
      "Ġpreval": 8977,
      "indu": 8978,
      "ĠCam": 8979,
      "Ã¨": 8980,
      "Ġproport": 8981,
      "ĠParameters": 8982,
      "Ġproduces": 8983,
      "loss": 8984,
      "Ġtemporary": 8985,
      "ĠText": 8986,
      "ĠĠĠĠĠĠĠĠĠĠĠĠĠĠĠĠĠĠĠĠĠĠĠĠĠĠĠĠĠĠĠĠĠĠĠĠĠ": 8987,
      "Ġremarkable": 8988,
      "Ġmeta": 8989,
      "icide": 8990,
      "Ġdescript": 8991,
      "Ġmarketing": 8992,
      "ĠRh": 8993,
      "Ġreb": 8994,
      "stderr": 8995,
      "Ġchapter": 8996,
      "Ġvirt": 8997,
      "Ġscored": 8998,
      "Ġtiny": 8999,
      "ador": 9000,
      "Ġlottery": 9001,
      "ĠParliament": 9002,
      "Ġfinish": 9003,
      "Ġwis": 9004,
      "ĠBible": 9005,
      "Ġanswers": 9006,
      "Ġholding": 9007,
      "ega": 9008,
      "Ġbiggest": 9009,
      "Ġbath": 9010,
      "Ġdefense": 9011,
      "quit": 9012,
      "ĠUl": 9013,
      "GL": 9014,
      "ati": 9015,
      "Ġremoval": 9016,
      "Ġce": 9017,
      "Ġyounger": 9018,
      "uted": 9019,
      "Ġserial": 9020,
      "ĠAbout": 9021,
      "inputs": 9022,
      "Ġsentence": 9023,
      "Ġda": 9024,
      "ĠDutch": 9025,
      "Ġhardware": 9026,
      "Ġconstantly": 9027,
      "ĠBab": 9028,
      "Ġtables": 9029,
      "Ġfellow": 9030,
      "Ġcareful": 9031,
      "Ġguard": 9032,
      "Post": 9033,
      "ovascular": 9034,
      "Ġalumni": 9035,
      "Ġ?": 9036,
      "anges": 9037,
      "Ġcontents": 9038,
      "ĠFestival": 9039,
      "gian": 9040,
      "Ġturning": 9041,
      "Ġmeal": 9042,
      "Ġmeals": 9043,
      "flag": 9044,
      "ĠWrit": 9045,
      "Ġpossibly": 9046,
      "apped": 9047,
      "nsel": 9048,
      "Ġfacilitate": 9049,
      "eric": 9050,
      "Ġclothing": 9051,
      "Ġmanifest": 9052,
      "Ġhistoric": 9053,
      "states": 9054,
      "forward": 9055,
      "Ġvictory": 9056,
      "Ġattached": 9057,
      "Ġpolitics": 9058,
      "Ġdietary": 9059,
      "Ġestablishments": 9060,
      "Ġschedul": 9061,
      "ĠĠĠĠĠĠĠĠĠĠĠĠĠĠĠĠĠĠĠĠĠĠĠĠĠĠĠĠĠĠĠĠĠĠĠĠĠĠ": 9062,
      "such": 9063,
      "Resource": 9064,
      "suff": 9065,
      "Ġvibrant": 9066,
      "Ġpossibility": 9067,
      "vars": 9068,
      "rac": 9069,
      "EV": 9070,
      "Ġ1993": 9071,
      "Ġeco": 9072,
      "/>": 9073,
      "Ġfly": 9074,
      "Ġconsume": 9075,
      "Max": 9076,
      "Ġsyndrome": 9077,
      "Ġmanagers": 9078,
      "ĠIT": 9079,
      "appe": 9080,
      "Ġcalling": 9081,
      "zym": 9082,
      "ĠMil": 9083,
      "Ġhappened": 9084,
      "tensor": 9085,
      "Ġobjectives": 9086,
      "orate": 9087,
      "Ġctx": 9088,
      "Ġchick": 9089,
      "Ġsimpl": 9090,
      "Ġedition": 9091,
      "desc": 9092,
      "Ġregulatory": 9093,
      "ĠHTML": 9094,
      "roc": 9095,
      "abil": 9096,
      "dumps": 9097,
      "Ġring": 9098,
      "lang": 9099,
      "ĠHot": 9100,
      "staticmethod": 9101,
      "ulator": 9102,
      "Ġhundreds": 9103,
      "Ġcompr": 9104,
      "IF": 9105,
      "SR": 9106,
      "tw": 9107,
      "Ġintellect": 9108,
      "Arg": 9109,
      "Ġsupplies": 9110,
      "%.": 9111,
      "Ġneck": 9112,
      "+\"": 9113,
      "interface": 9114,
      "esity": 9115,
      "ĠNon": 9116,
      "Ġtalking": 9117,
      "ylvania": 9118,
      "antly": 9119,
      "owner": 9120,
      "variable": 9121,
      "itamin": 9122,
      "Ġnotable": 9123,
      "AF": 9124,
      "fire": 9125,
      "Ġcalcium": 9126,
      "abin": 9127,
      "ryption": 9128,
      "Ġuniverse": 9129,
      "Ġnegot": 9130,
      "Ġterritory": 9131,
      "Car": 9132,
      "Ġpriority": 9133,
      "ĠEngineering": 9134,
      "Ġtransaction": 9135,
      "ĠIndex": 9136,
      "ãģ": 9137,
      "Ġwants": 9138,
      "atty": 9139,
      "Ġdescribes": 9140,
      "screen": 9141,
      "Ġstreet": 9142,
      "Ġexport": 9143,
      "Version": 9144,
      "Ġexit": 9145,
      "Ġsurvive": 9146,
      "Ġlights": 9147,
      "ĠLead": 9148,
      "Ġhus": 9149,
      "Ġbiodiversity": 9150,
      "Ġuncertain": 9151,
      "Ġliv": 9152,
      "asty": 9153,
      "Ġdeeply": 9154,
      "Ġnarrative": 9155,
      "Ġhandler": 9156,
      "Ġobst": 9157,
      "ĠSO": 9158,
      "Ġmyth": 9159,
      "Ġchildhood": 9160,
      "Ġlegacy": 9161,
      "Ġgreatest": 9162,
      "nee": 9163,
      "Ġrespiratory": 9164,
      "Ġcounty": 9165,
      "iture": 9166,
      "Ġgover": 9167,
      "blem": 9168,
      "paren": 9169,
      "Ġceremon": 9170,
      "socket": 9171,
      "Attribute": 9172,
      "arse": 9173,
      "ho": 9174,
      "Ġfossil": 9175,
      "Ġsomew": 9176,
      "Ġcaptured": 9177,
      "Ġtall": 9178,
      "Ġpassing": 9179,
      "Ġrobot": 9180,
      "cloud": 9181,
      "essional": 9182,
      "ĠNature": 9183,
      "Ġartistic": 9184,
      "Ġbrush": 9185,
      "Ġvoltage": 9186,
[...]
